/* Generated by Edge Impulse
 *
 * Permission is hereby granted, free of charge, to any person obtaining a copy
 * of this software and associated documentation files (the "Software"), to deal
 * in the Software without restriction, including without limitation the rights
 * to use, copy, modify, merge, publish, distribute, sublicense, and/or sell
 * copies of the Software, and to permit persons to whom the Software is
 * furnished to do so, subject to the following conditions:
 *
 * The above copyright notice and this permission notice shall be included in
 * all copies or substantial portions of the Software.
 *
 * THE SOFTWARE IS PROVIDED "AS IS", WITHOUT WARRANTY OF ANY KIND, EXPRESS OR
 * IMPLIED, INCLUDING BUT NOT LIMITED TO THE WARRANTIES OF MERCHANTABILITY,
 * FITNESS FOR A PARTICULAR PURPOSE AND NONINFRINGEMENT. IN NO EVENT SHALL THE
 * AUTHORS OR COPYRIGHT HOLDERS BE LIABLE FOR ANY CLAIM, DAMAGES OR OTHER
 * LIABILITY, WHETHER IN AN ACTION OF CONTRACT, TORT OR OTHERWISE, ARISING FROM,
 * OUT OF OR IN CONNECTION WITH THE SOFTWARE OR THE USE OR OTHER DEALINGS IN THE
 * SOFTWARE.
 */

#ifndef _EI_CLASSIFIER_TFLITE_LEARN_5_H_
#define _EI_CLASSIFIER_TFLITE_LEARN_5_H_

#define EI_CLASSIFIER_TFLITE_LEARN_5_ARENA_SIZE     7417
const size_t tflite_learn_5_arena_size = 7417;

#ifdef EI_CLASSIFIER_TFLITE_ARENA_SIZE
#if EI_CLASSIFIER_TFLITE_ARENA_SIZE < EI_CLASSIFIER_TFLITE_LEARN_5_ARENA_SIZE
#undef EI_CLASSIFIER_TFLITE_ARENA_SIZE
#define EI_CLASSIFIER_TFLITE_ARENA_SIZE EI_CLASSIFIER_TFLITE_LEARN_5_ARENA_SIZE
#endif // #if EI_CLASSIFIER_TFLITE_ARENA_SIZE < EI_CLASSIFIER_TFLITE_LEARN_5_ARENA_SIZE
#else
#define EI_CLASSIFIER_TFLITE_ARENA_SIZE EI_CLASSIFIER_TFLITE_LEARN_5_ARENA_SIZE
#endif // #ifdef EI_CLASSIFIER_TFLITE_ARENA_SIZE

#if defined __GNUC__
#define ALIGN(X) __attribute__((aligned(X)))
#elif defined _MSC_VER
#define ALIGN(X) __declspec(align(X))
#elif defined __TASKING__
#define ALIGN(X) __align(X)
#else
#define ALIGN(X)
#endif

ALIGN(16) const unsigned char tflite_learn_5[] = {
  0x1c, 0x00, 0x00, 0x00, 0x54, 0x46, 0x4c, 0x33, 0x14, 0x00, 0x20, 0x00,
  0x1c, 0x00, 0x18, 0x00, 0x14, 0x00, 0x10, 0x00, 0x0c, 0x00, 0x00, 0x00,
  0x08, 0x00, 0x04, 0x00, 0x14, 0x00, 0x00, 0x00, 0x1c, 0x00, 0x00, 0x00,
  0x8c, 0x00, 0x00, 0x00, 0xe4, 0x00, 0x00, 0x00, 0xcc, 0x13, 0x00, 0x00,
  0xdc, 0x13, 0x00, 0x00, 0xe8, 0x23, 0x00, 0x00, 0x03, 0x00, 0x00, 0x00,
  0x01, 0x00, 0x00, 0x00, 0x10, 0x00, 0x00, 0x00, 0x00, 0x00, 0x0a, 0x00,
  0x10, 0x00, 0x0c, 0x00, 0x08, 0x00, 0x04, 0x00, 0x0a, 0x00, 0x00, 0x00,
  0x0c, 0x00, 0x00, 0x00, 0x1c, 0x00, 0x00, 0x00, 0x3c, 0x00, 0x00, 0x00,
  0x0f, 0x00, 0x00, 0x00, 0x73, 0x65, 0x72, 0x76, 0x69, 0x6e, 0x67, 0x5f,
  0x64, 0x65, 0x66, 0x61, 0x75, 0x6c, 0x74, 0x00, 0x01, 0x00, 0x00, 0x00,
  0x04, 0x00, 0x00, 0x00, 0x9c, 0xff, 0xff, 0xff, 0x16, 0x00, 0x00, 0x00,
  0x04, 0x00, 0x00, 0x00, 0x08, 0x00, 0x00, 0x00, 0x6f, 0x75, 0x74, 0x70,
  0x75, 0x74, 0x5f, 0x30, 0x00, 0x00, 0x00, 0x00, 0x01, 0x00, 0x00, 0x00,
  0x04, 0x00, 0x00, 0x00, 0x0e, 0xec, 0xff, 0xff, 0x04, 0x00, 0x00, 0x00,
  0x01, 0x00, 0x00, 0x00, 0x78, 0x00, 0x00, 0x00, 0x02, 0x00, 0x00, 0x00,
  0x34, 0x00, 0x00, 0x00, 0x04, 0x00, 0x00, 0x00, 0xdc, 0xff, 0xff, 0xff,
  0x19, 0x00, 0x00, 0x00, 0x04, 0x00, 0x00, 0x00, 0x13, 0x00, 0x00, 0x00,
  0x43, 0x4f, 0x4e, 0x56, 0x45, 0x52, 0x53, 0x49, 0x4f, 0x4e, 0x5f, 0x4d,
  0x45, 0x54, 0x41, 0x44, 0x41, 0x54, 0x41, 0x00, 0x08, 0x00, 0x0c, 0x00,
  0x08, 0x00, 0x04, 0x00, 0x08, 0x00, 0x00, 0x00, 0x18, 0x00, 0x00, 0x00,
  0x04, 0x00, 0x00, 0x00, 0x13, 0x00, 0x00, 0x00, 0x6d, 0x69, 0x6e, 0x5f,
  0x72, 0x75, 0x6e, 0x74, 0x69, 0x6d, 0x65, 0x5f, 0x76, 0x65, 0x72, 0x73,
  0x69, 0x6f, 0x6e, 0x00, 0x1a, 0x00, 0x00, 0x00, 0xe4, 0x12, 0x00, 0x00,
  0xdc, 0x12, 0x00, 0x00, 0xbc, 0x12, 0x00, 0x00, 0x9c, 0x12, 0x00, 0x00,
  0x7c, 0x12, 0x00, 0x00, 0x5c, 0x12, 0x00, 0x00, 0x44, 0x12, 0x00, 0x00,
  0x0c, 0x12, 0x00, 0x00, 0x3c, 0x04, 0x00, 0x00, 0xec, 0x03, 0x00, 0x00,
  0x5c, 0x02, 0x00, 0x00, 0x2c, 0x02, 0x00, 0x00, 0xe4, 0x00, 0x00, 0x00,
  0xdc, 0x00, 0x00, 0x00, 0xd4, 0x00, 0x00, 0x00, 0xcc, 0x00, 0x00, 0x00,
  0xc4, 0x00, 0x00, 0x00, 0xbc, 0x00, 0x00, 0x00, 0xb4, 0x00, 0x00, 0x00,
  0xac, 0x00, 0x00, 0x00, 0xa4, 0x00, 0x00, 0x00, 0x9c, 0x00, 0x00, 0x00,
  0x94, 0x00, 0x00, 0x00, 0x8c, 0x00, 0x00, 0x00, 0x6c, 0x00, 0x00, 0x00,
  0x04, 0x00, 0x00, 0x00, 0xe6, 0xec, 0xff, 0xff, 0x04, 0x00, 0x00, 0x00,
  0x58, 0x00, 0x00, 0x00, 0x0c, 0x00, 0x00, 0x00, 0x08, 0x00, 0x0e, 0x00,
  0x08, 0x00, 0x04, 0x00, 0x08, 0x00, 0x00, 0x00, 0x10, 0x00, 0x00, 0x00,
  0x28, 0x00, 0x00, 0x00, 0x00, 0x00, 0x06, 0x00, 0x08, 0x00, 0x04, 0x00,
  0x06, 0x00, 0x00, 0x00, 0x04, 0x00, 0x00, 0x00, 0x01, 0x00, 0x00, 0x00,
  0xeb, 0x03, 0x00, 0x00, 0x00, 0x00, 0x0a, 0x00, 0x10, 0x00, 0x0c, 0x00,
  0x08, 0x00, 0x04, 0x00, 0x0a, 0x00, 0x00, 0x00, 0x03, 0x00, 0x00, 0x00,
  0x02, 0x00, 0x00, 0x00, 0x04, 0x00, 0x00, 0x00, 0x06, 0x00, 0x00, 0x00,
  0x32, 0x2e, 0x31, 0x31, 0x2e, 0x31, 0x00, 0x00, 0x4a, 0xed, 0xff, 0xff,
  0x04, 0x00, 0x00, 0x00, 0x10, 0x00, 0x00, 0x00, 0x31, 0x2e, 0x31, 0x34,
  0x2e, 0x30, 0x00, 0x00, 0x00, 0x00, 0x00, 0x00, 0x00, 0x00, 0x00, 0x00,
  0x98, 0xde, 0xff, 0xff, 0x9c, 0xde, 0xff, 0xff, 0xa0, 0xde, 0xff, 0xff,
  0xa4, 0xde, 0xff, 0xff, 0xa8, 0xde, 0xff, 0xff, 0xac, 0xde, 0xff, 0xff,
  0xb0, 0xde, 0xff, 0xff, 0xb4, 0xde, 0xff, 0xff, 0xb8, 0xde, 0xff, 0xff,
  0xbc, 0xde, 0xff, 0xff, 0xc0, 0xde, 0xff, 0xff, 0x92, 0xed, 0xff, 0xff,
  0x04, 0x00, 0x00, 0x00, 0x38, 0x01, 0x00, 0x00, 0x02, 0xfc, 0xe8, 0xcf,
  0xa3, 0xf6, 0x73, 0xe4, 0xd6, 0xff, 0x06, 0xe2, 0x3e, 0xb6, 0x88, 0x0a,
  0xc6, 0xe1, 0xe4, 0xdd, 0x25, 0xd2, 0x1b, 0x1e, 0x06, 0x31, 0xf6, 0x81,
  0x08, 0x95, 0xc4, 0x2f, 0x3b, 0xf1, 0x05, 0xe8, 0x14, 0x0c, 0x4d, 0x9d,
  0xd0, 0x2f, 0x7f, 0xd6, 0x10, 0xb0, 0x38, 0xea, 0xfe, 0x0e, 0xce, 0x0b,
  0xaf, 0x28, 0x39, 0xe6, 0xe0, 0x3d, 0x2d, 0x2b, 0xc6, 0x16, 0x15, 0x03,
  0xcc, 0xb0, 0xdc, 0x15, 0x33, 0x1b, 0xe6, 0xf7, 0x2f, 0xfa, 0x36, 0xf0,
  0xcd, 0x08, 0x26, 0x0e, 0xcb, 0xd9, 0xbe, 0xcd, 0x42, 0x31, 0xfc, 0x0c,
  0x18, 0xe2, 0x20, 0xc8, 0xa3, 0x0f, 0x28, 0xc7, 0x1d, 0x34, 0x50, 0xfc,
  0x0a, 0xfc, 0x29, 0xd2, 0xe0, 0x81, 0xf9, 0xca, 0xc8, 0xfb, 0xc3, 0x1c,
  0x21, 0xdf, 0x10, 0xf6, 0xf8, 0xfe, 0xa4, 0x06, 0xcf, 0x42, 0xc5, 0x18,
  0x03, 0x1e, 0xbf, 0xfe, 0xf9, 0xe8, 0x4f, 0xbd, 0xe3, 0x46, 0x10, 0xf0,
  0xd9, 0x05, 0x12, 0x0e, 0x13, 0x41, 0x1d, 0x71, 0x81, 0x21, 0x14, 0x17,
  0x02, 0x16, 0xfb, 0xf7, 0x15, 0xd1, 0x35, 0xd9, 0x5c, 0x90, 0x1b, 0x10,
  0xdf, 0x10, 0xb7, 0x5c, 0xeb, 0x9f, 0xa9, 0x6d, 0x39, 0x68, 0xc1, 0x59,
  0xdc, 0xea, 0xc0, 0xa9, 0x13, 0xd8, 0xb3, 0xef, 0x13, 0x24, 0x0e, 0xe5,
  0x3d, 0xd5, 0xd4, 0xf8, 0x81, 0x0e, 0x10, 0xb2, 0xde, 0x71, 0x10, 0xde,
  0xe7, 0x11, 0x4c, 0x2a, 0x16, 0xdf, 0x12, 0xd1, 0x56, 0xca, 0x27, 0x12,
  0x54, 0xb3, 0x12, 0xe9, 0x23, 0x00, 0x1c, 0xb3, 0x05, 0x75, 0x88, 0xd4,
  0xc3, 0x2a, 0x35, 0xcc, 0x7f, 0xbe, 0x27, 0xd4, 0xbf, 0x5f, 0x4c, 0xdb,
  0x9a, 0x41, 0x24, 0x7f, 0x20, 0x31, 0xf6, 0xfa, 0x17, 0xdd, 0xb9, 0xd8,
  0xd2, 0x12, 0xc0, 0xf3, 0x4a, 0xfd, 0xdd, 0x2d, 0x2d, 0x43, 0xc2, 0xf4,
  0xf1, 0xf0, 0xd7, 0xf1, 0x54, 0x53, 0x04, 0xd3, 0x07, 0xf4, 0x68, 0xb5,
  0xbd, 0x45, 0xc3, 0x07, 0xb0, 0x36, 0x24, 0x6b, 0x5b, 0x4c, 0x2d, 0xc3,
  0x63, 0xfc, 0x8b, 0x7f, 0xf3, 0x21, 0x9e, 0x1b, 0x2d, 0x31, 0x35, 0xce,
  0xde, 0xec, 0xfc, 0x9b, 0x1c, 0x30, 0xb1, 0xce, 0x68, 0x53, 0x6c, 0xb0,
  0xd7, 0x07, 0x4d, 0x10, 0x8f, 0x3c, 0xef, 0x08, 0xd6, 0xee, 0xff, 0xff,
  0x04, 0x00, 0x00, 0x00, 0x20, 0x00, 0x00, 0x00, 0x36, 0xfe, 0xff, 0xff,
  0x7c, 0xfc, 0xff, 0xff, 0x89, 0xfe, 0xff, 0xff, 0xb9, 0xfe, 0xff, 0xff,
  0x45, 0xfd, 0xff, 0xff, 0x9a, 0xfc, 0xff, 0xff, 0xc5, 0xfa, 0xff, 0xff,
  0x33, 0xff, 0xff, 0xff, 0x02, 0xef, 0xff, 0xff, 0x04, 0x00, 0x00, 0x00,
  0x80, 0x01, 0x00, 0x00, 0x10, 0x22, 0x46, 0x64, 0xb4, 0xfc, 0xfa, 0xf0,
  0x1e, 0x27, 0xff, 0xef, 0x97, 0x0d, 0x7f, 0x8d, 0x4e, 0x1f, 0x0e, 0xff,
  0x98, 0xb5, 0x48, 0xd9, 0x95, 0x3e, 0xc7, 0x15, 0xf2, 0xc8, 0xf5, 0x2d,
  0xb5, 0x12, 0xb8, 0xf1, 0x1c, 0x4f, 0x19, 0x7f, 0x1b, 0x2d, 0x00, 0xb2,
  0xc5, 0xd8, 0xf6, 0xf5, 0xd3, 0x09, 0xe1, 0xfe, 0x01, 0x9d, 0xe6, 0x3a,
  0x3f, 0x04, 0x44, 0x1c, 0x12, 0x81, 0xec, 0x56, 0xc4, 0x1d, 0x13, 0xce,
  0xd6, 0xd1, 0x14, 0x12, 0x11, 0xbe, 0x0f, 0xec, 0x7f, 0xcd, 0xf4, 0x0f,
  0xfa, 0xaf, 0xed, 0x20, 0x40, 0xc7, 0xeb, 0x22, 0xc4, 0xf2, 0xaa, 0xd6,
  0x41, 0x02, 0x1f, 0x37, 0xbb, 0xe6, 0xb8, 0xb0, 0xa3, 0xf4, 0x0c, 0x49,
  0xce, 0xf7, 0xcb, 0x90, 0xa7, 0x31, 0x44, 0xf8, 0x2b, 0x2c, 0x1e, 0xaf,
  0x91, 0x7f, 0xfb, 0x2c, 0xad, 0x43, 0x04, 0x13, 0xf4, 0xaa, 0xc3, 0x71,
  0xb8, 0x4a, 0xe8, 0xdc, 0x1f, 0x27, 0x9c, 0xef, 0xc5, 0x7f, 0x14, 0x12,
  0xf4, 0x1e, 0xb4, 0x45, 0x7f, 0xcd, 0x56, 0x49, 0xf0, 0xd4, 0x09, 0xec,
  0x31, 0xa6, 0x58, 0xcd, 0xf1, 0xdb, 0xf1, 0x0d, 0x09, 0xb3, 0xf9, 0x37,
  0x08, 0xfb, 0xd4, 0xe1, 0xbb, 0x3b, 0xb9, 0x86, 0xc0, 0x50, 0x73, 0x05,
  0xe0, 0x39, 0xde, 0x0e, 0x3c, 0x2f, 0x37, 0x01, 0xe2, 0xed, 0x81, 0xf0,
  0x14, 0xec, 0x7e, 0xff, 0x09, 0x81, 0x49, 0x5a, 0x34, 0xad, 0x4e, 0x04,
  0xe8, 0x86, 0xc4, 0x40, 0x64, 0xeb, 0xab, 0x61, 0xf1, 0xb3, 0x72, 0x3a,
  0x26, 0x05, 0xc6, 0xd6, 0x18, 0xd8, 0x38, 0x78, 0xfa, 0x7d, 0xe6, 0x07,
  0x0d, 0xbb, 0x02, 0xe7, 0x25, 0x73, 0xb6, 0xfc, 0xe7, 0xad, 0xd9, 0x7f,
  0xe8, 0x3f, 0xcd, 0x4c, 0x8f, 0xd1, 0xe2, 0x07, 0xfe, 0xda, 0x55, 0x00,
  0x8e, 0xd5, 0xb7, 0x11, 0xcf, 0xd4, 0xed, 0x11, 0x9e, 0x07, 0xc4, 0x3b,
  0xd9, 0x35, 0xef, 0x7f, 0xdf, 0x0f, 0xef, 0x7f, 0x57, 0x2c, 0xbd, 0xd3,
  0xd7, 0xdb, 0x01, 0x17, 0x6f, 0xf8, 0xe3, 0x08, 0xea, 0xf7, 0xf8, 0x37,
  0xd2, 0xfb, 0xda, 0xeb, 0x93, 0x20, 0xaf, 0x31, 0xb9, 0x12, 0x4c, 0xcb,
  0x04, 0x0a, 0xd0, 0xcc, 0xbe, 0x59, 0xd7, 0xcc, 0x11, 0x42, 0x22, 0x11,
  0x32, 0x81, 0xac, 0x3f, 0x46, 0x08, 0x0a, 0xf1, 0xb4, 0x3e, 0xc2, 0x9d,
  0x5d, 0x3b, 0xf5, 0x0e, 0xa0, 0xd4, 0xa9, 0x96, 0x10, 0x2e, 0x7f, 0xfc,
  0x18, 0xcc, 0x9e, 0x02, 0x35, 0xf4, 0x39, 0x1b, 0x09, 0x2f, 0x03, 0xba,
  0xf8, 0x27, 0x62, 0x21, 0xf8, 0x00, 0x07, 0x81, 0x60, 0xc2, 0x0c, 0x6b,
  0x08, 0xdb, 0xff, 0x9b, 0xf9, 0x03, 0x08, 0x8c, 0x24, 0xad, 0x0c, 0x6f,
  0xba, 0xaa, 0x0d, 0x87, 0x1d, 0x89, 0x2c, 0x25, 0x94, 0x81, 0x1e, 0x86,
  0xd4, 0xbf, 0x52, 0x13, 0x8e, 0xf0, 0xff, 0xff, 0x04, 0x00, 0x00, 0x00,
  0x40, 0x00, 0x00, 0x00, 0xcf, 0xfa, 0xff, 0xff, 0x11, 0xfd, 0xff, 0xff,
  0x28, 0xfc, 0xff, 0xff, 0x13, 0x02, 0x00, 0x00, 0xc2, 0x00, 0x00, 0x00,
  0x5c, 0xfe, 0xff, 0xff, 0xd3, 0xff, 0xff, 0xff, 0x3f, 0xfa, 0xff, 0xff,
  0x6d, 0xfe, 0xff, 0xff, 0xce, 0xfc, 0xff, 0xff, 0x3f, 0x05, 0x00, 0x00,
  0x6a, 0x03, 0x00, 0x00, 0x77, 0xfd, 0xff, 0xff, 0x32, 0x03, 0x00, 0x00,
  0xa9, 0xff, 0xff, 0xff, 0x8e, 0x04, 0x00, 0x00, 0xda, 0xf0, 0xff, 0xff,
  0x04, 0x00, 0x00, 0x00, 0xc0, 0x0d, 0x00, 0x00, 0xfd, 0x3d, 0x09, 0x2f,
  0x40, 0x14, 0xf2, 0x13, 0x42, 0x24, 0x4c, 0x11, 0x05, 0xc8, 0xdc, 0x15,
  0xdf, 0x11, 0x00, 0x2c, 0x1b, 0x0c, 0x33, 0x21, 0x20, 0x15, 0x04, 0x28,
  0x10, 0xce, 0xfc, 0x07, 0xd8, 0x10, 0xfa, 0x07, 0x2f, 0xef, 0xf5, 0xf7,
  0x1c, 0x0a, 0x13, 0x39, 0x1e, 0xfb, 0x04, 0xf4, 0x18, 0x1e, 0xfd, 0x06,
  0x15, 0x0c, 0x04, 0x0a, 0xfa, 0x22, 0xfd, 0x17, 0xfc, 0xd5, 0xe6, 0x09,
  0xcd, 0x20, 0x13, 0x0d, 0x07, 0x05, 0xf8, 0x04, 0x09, 0x22, 0xf6, 0xf4,
  0x19, 0xe2, 0xe4, 0x07, 0xe1, 0x24, 0x21, 0x0c, 0xed, 0x07, 0xf7, 0x15,
  0x18, 0x0d, 0x35, 0x2f, 0xd5, 0xe3, 0xfd, 0xf4, 0x1b, 0x27, 0xeb, 0xdf,
  0x05, 0xfc, 0xf5, 0x05, 0x11, 0xff, 0xfc, 0xf2, 0xfd, 0xda, 0xf2, 0x02,
  0xe3, 0xe5, 0xd2, 0xef, 0xf6, 0xe1, 0x2e, 0xfe, 0x0f, 0xfa, 0xec, 0xf3,
  0x0a, 0x1b, 0x07, 0xe8, 0x10, 0xfe, 0x21, 0x1f, 0xe8, 0x05, 0xfd, 0xe5,
  0xf8, 0xfb, 0xcb, 0x0d, 0x05, 0x0a, 0x13, 0xd6, 0x0f, 0xf9, 0x14, 0x07,
  0xef, 0x07, 0x28, 0xe6, 0xf8, 0x00, 0x20, 0xe5, 0xdf, 0xea, 0x09, 0xde,
  0xf8, 0x07, 0x0c, 0xfc, 0xf0, 0x10, 0x1d, 0xe8, 0xee, 0xed, 0xc8, 0x06,
  0xe0, 0x18, 0x1b, 0xfc, 0xe4, 0xff, 0x13, 0xe0, 0xea, 0x23, 0x16, 0xf1,
  0xea, 0xeb, 0xda, 0xf9, 0xfd, 0x01, 0x00, 0xda, 0xf3, 0xd9, 0xf4, 0xd9,
  0xe5, 0x29, 0x06, 0xe0, 0xf8, 0x09, 0x02, 0xf5, 0xf3, 0xf7, 0x20, 0xd3,
  0xd4, 0x00, 0xfc, 0x04, 0xee, 0x27, 0x31, 0xd5, 0x11, 0x1f, 0x07, 0x13,
  0xf1, 0xe3, 0x1d, 0xe3, 0xd3, 0x12, 0x14, 0x18, 0x08, 0x21, 0x17, 0xe7,
  0x1d, 0x28, 0xdd, 0x28, 0xf9, 0xd9, 0xeb, 0xc1, 0xf5, 0x09, 0xf6, 0xf9,
  0x2c, 0x0f, 0xda, 0x06, 0x0b, 0x14, 0xff, 0x04, 0x27, 0x18, 0x0e, 0xdd,
  0x02, 0x1a, 0xf4, 0xfd, 0x0e, 0x1a, 0x07, 0xf5, 0x0b, 0x2b, 0x10, 0x38,
  0x0a, 0x09, 0x1a, 0xc3, 0xf9, 0x0c, 0xfd, 0x04, 0xf6, 0x10, 0x02, 0xeb,
  0x1b, 0x22, 0x25, 0xff, 0x0b, 0xf5, 0x08, 0xf3, 0xf1, 0x33, 0x19, 0x17,
  0x02, 0x06, 0xff, 0x01, 0x08, 0x11, 0xe5, 0x23, 0x06, 0xf3, 0xfb, 0x01,
  0xe3, 0xea, 0x17, 0x03, 0xf6, 0xd1, 0x19, 0xf7, 0xed, 0x09, 0xf5, 0xe1,
  0xde, 0xe4, 0xe3, 0x3b, 0xe9, 0x06, 0x09, 0x25, 0x23, 0x04, 0x02, 0xef,
  0x30, 0x29, 0x1c, 0x12, 0xea, 0xbf, 0xdc, 0xf4, 0xe1, 0xed, 0x11, 0x0b,
  0x0f, 0x12, 0x08, 0x0a, 0x1d, 0x08, 0xe6, 0x02, 0x0e, 0xc4, 0xdd, 0x16,
  0x0c, 0xf7, 0xf3, 0xff, 0xf5, 0xfd, 0x14, 0xd9, 0xdf, 0x22, 0xee, 0xbc,
  0x0e, 0x15, 0xf9, 0xfd, 0xf5, 0xe9, 0x11, 0xfa, 0x4a, 0x0f, 0xf3, 0xf3,
  0xea, 0xf0, 0x2e, 0xf0, 0xf7, 0xfe, 0xfa, 0x06, 0x10, 0x00, 0xef, 0xe0,
  0x03, 0xfb, 0xfe, 0xf0, 0xfb, 0x01, 0x22, 0xe0, 0x13, 0xf3, 0x15, 0xc6,
  0xff, 0xf2, 0xf5, 0xef, 0xd1, 0x04, 0xfc, 0x0a, 0x03, 0xfe, 0x09, 0x08,
  0xfb, 0x03, 0x13, 0xe6, 0x13, 0x2d, 0x0b, 0x02, 0xcb, 0x1f, 0xdb, 0x07,
  0x05, 0x09, 0x05, 0x2f, 0xfd, 0xfd, 0xe6, 0xed, 0x0e, 0x12, 0x19, 0xf3,
  0xde, 0x19, 0x06, 0xfc, 0xeb, 0xee, 0xec, 0x0b, 0x0d, 0xf9, 0xde, 0x03,
  0xf8, 0x03, 0x26, 0xf3, 0xa4, 0x26, 0xbd, 0xfe, 0x03, 0xfd, 0xc0, 0x0f,
  0xe0, 0xfa, 0xfd, 0xf8, 0x02, 0x11, 0x07, 0xef, 0xfa, 0x18, 0xf3, 0xf0,
  0xcb, 0x05, 0xe7, 0xd3, 0x0a, 0xe0, 0xd6, 0xbe, 0xeb, 0x08, 0x1a, 0xdf,
  0x0b, 0x04, 0xc6, 0x12, 0xd7, 0x08, 0xe6, 0xf3, 0xf2, 0xbe, 0xf5, 0x0c,
  0x05, 0x0d, 0xfa, 0xe0, 0x06, 0xee, 0xe3, 0x1c, 0xce, 0xff, 0xf2, 0xd5,
  0xd4, 0xc7, 0xe5, 0xf4, 0x1a, 0xe5, 0xf3, 0xc0, 0xfa, 0xea, 0xf1, 0x10,
  0xd6, 0xf5, 0x05, 0xb5, 0xf5, 0xc5, 0xf5, 0xd7, 0x22, 0x09, 0xe4, 0xd7,
  0x1c, 0xb2, 0x0e, 0x10, 0xe0, 0xe8, 0xe3, 0xd9, 0xf5, 0xad, 0xff, 0xf2,
  0x0c, 0x12, 0x04, 0xfa, 0x01, 0xd3, 0x12, 0x22, 0xfa, 0xf8, 0x01, 0x91,
  0xf8, 0xe2, 0xdc, 0x13, 0xf2, 0xfc, 0x0f, 0x11, 0xd6, 0xb7, 0xee, 0x00,
  0xeb, 0xc9, 0xfe, 0xbc, 0xff, 0xb0, 0xfc, 0x21, 0x0f, 0x0f, 0x11, 0xf5,
  0xfc, 0xd9, 0x07, 0x17, 0x0f, 0xc5, 0xd9, 0xf2, 0xed, 0xd4, 0x22, 0x10,
  0x10, 0xe5, 0xed, 0xf4, 0x02, 0xaa, 0x1c, 0xfd, 0xef, 0xda, 0xd1, 0x9e,
  0xf6, 0xf3, 0x20, 0xf4, 0x09, 0xcd, 0x19, 0xde, 0xfd, 0xef, 0x2f, 0xdf,
  0x18, 0xd4, 0xc1, 0xc7, 0xe1, 0x16, 0x43, 0xed, 0x29, 0xd4, 0x13, 0xe4,
  0xc9, 0xf4, 0x0f, 0xcc, 0xf1, 0x1c, 0x92, 0xf7, 0xd2, 0x24, 0x18, 0xf8,
  0x10, 0xd6, 0xea, 0xd1, 0xfd, 0x12, 0x22, 0x00, 0x18, 0x2b, 0xe5, 0x15,
  0x0e, 0x28, 0x13, 0xc9, 0x10, 0x23, 0xfb, 0xf7, 0xd2, 0x0b, 0xfb, 0xed,
  0x13, 0x03, 0xb4, 0x02, 0xeb, 0x13, 0x1e, 0xf3, 0xf4, 0x0d, 0xf6, 0xff,
  0xdb, 0x27, 0xd2, 0xf3, 0xf1, 0x19, 0x17, 0x03, 0x03, 0xfc, 0xf2, 0xef,
  0xf5, 0x0e, 0x0f, 0xcd, 0xff, 0x22, 0xc3, 0x0f, 0x07, 0xfb, 0x0a, 0xff,
  0x2d, 0xf4, 0xe8, 0x0e, 0x0b, 0xe1, 0xf9, 0xf6, 0xe8, 0x11, 0x09, 0xdc,
  0xfc, 0xe9, 0xd3, 0xc5, 0xfa, 0x33, 0x19, 0xd7, 0x16, 0xea, 0xed, 0xf5,
  0xdf, 0xf8, 0xe8, 0x03, 0xda, 0x11, 0xfd, 0xd9, 0x29, 0x0a, 0x0f, 0xf1,
  0x06, 0x0d, 0xfc, 0x07, 0xf7, 0x00, 0xf0, 0xf8, 0x17, 0xef, 0xfd, 0x17,
  0x04, 0x28, 0x08, 0xf9, 0x21, 0xe6, 0xfc, 0xe4, 0xfe, 0x07, 0x18, 0xf5,
  0xed, 0x16, 0xed, 0xed, 0x0d, 0x33, 0x12, 0xf8, 0x07, 0x09, 0x26, 0xde,
  0xda, 0x04, 0x21, 0xd6, 0xfa, 0x13, 0xe7, 0xf5, 0xe9, 0x0e, 0x21, 0xde,
  0x1a, 0xf2, 0x1c, 0xda, 0xa3, 0x11, 0xed, 0xca, 0xf7, 0xd7, 0xac, 0x00,
  0xdb, 0x1b, 0xfb, 0xba, 0x0f, 0xf9, 0x0e, 0xd0, 0xc1, 0x10, 0xfa, 0xf7,
  0xdd, 0xdd, 0xca, 0xf0, 0xe8, 0x25, 0x1f, 0xf5, 0xfe, 0x1e, 0x10, 0xd5,
  0xe1, 0x0b, 0xe7, 0xf1, 0xcd, 0xea, 0xea, 0xc9, 0xdf, 0x0d, 0x16, 0xe1,
  0xf4, 0xed, 0xd7, 0xcd, 0xfd, 0x13, 0xec, 0x0d, 0xe0, 0x05, 0xc7, 0x03,
  0xf6, 0xfb, 0x0d, 0xde, 0x1d, 0xd3, 0xe3, 0xe3, 0xb9, 0xd5, 0xd3, 0xf7,
  0xe4, 0x09, 0xdb, 0x14, 0xc9, 0xf4, 0xf1, 0xc8, 0x13, 0xde, 0xe9, 0xe1,
  0xd1, 0x9e, 0xb6, 0x0d, 0xe5, 0xf7, 0xe1, 0xf5, 0xe3, 0xe0, 0x18, 0xe1,
  0x01, 0xe8, 0xf2, 0xfd, 0x12, 0x96, 0x01, 0x20, 0x04, 0xed, 0xd0, 0x0a,
  0xd5, 0xc8, 0xf3, 0x0f, 0x08, 0xe5, 0xd8, 0xf9, 0xf5, 0xa6, 0xea, 0x0d,
  0xf3, 0xd1, 0xe0, 0xc2, 0xe4, 0xfe, 0x1b, 0x07, 0xf0, 0xd7, 0xdb, 0x01,
  0x0a, 0x98, 0x10, 0x00, 0x18, 0xcc, 0xc1, 0xe4, 0xf1, 0xec, 0x14, 0xf4,
  0xd6, 0xd1, 0xec, 0x19, 0xd1, 0xbe, 0x19, 0x09, 0x14, 0xc4, 0xf6, 0x0f,
  0xfa, 0xf8, 0x21, 0x0b, 0xde, 0xe5, 0xf1, 0x22, 0xef, 0xfe, 0x09, 0x0b,
  0x06, 0xe2, 0xe5, 0x1a, 0xec, 0xb8, 0x09, 0x03, 0xe6, 0x20, 0x11, 0x2a,
  0x0c, 0x2a, 0xe9, 0x0a, 0xe3, 0xdc, 0x11, 0x0b, 0x14, 0xf7, 0xf1, 0xdc,
  0x02, 0x21, 0x06, 0x24, 0xf3, 0x1c, 0xfc, 0x05, 0x0d, 0xdd, 0x08, 0x05,
  0x02, 0xef, 0xd9, 0x01, 0xfe, 0x1a, 0x19, 0xfd, 0x2b, 0x17, 0xdc, 0x06,
  0xf1, 0x01, 0x09, 0xe8, 0xfd, 0xf4, 0xff, 0xf8, 0x05, 0x15, 0x0d, 0xd3,
  0x4d, 0x1b, 0xdc, 0x0d, 0xdd, 0xf5, 0x00, 0xf3, 0x17, 0x0b, 0x02, 0xfc,
  0x27, 0x11, 0xfd, 0xd8, 0xeb, 0x10, 0x05, 0x1d, 0xf3, 0x01, 0xc7, 0xe6,
  0x2a, 0x22, 0x18, 0xf3, 0x12, 0x05, 0x1c, 0x1b, 0xf7, 0x12, 0x21, 0xeb,
  0xf1, 0xf5, 0xc5, 0x10, 0xeb, 0x25, 0x27, 0xe2, 0xfa, 0xf9, 0xe6, 0xd1,
  0x16, 0xfb, 0xe1, 0x06, 0x02, 0xd2, 0x05, 0xcd, 0xf3, 0xd8, 0xd4, 0xd1,
  0xe7, 0x1b, 0x00, 0xd0, 0x09, 0xf6, 0xe6, 0x09, 0xd1, 0xf9, 0xe8, 0xb9,
  0xde, 0xeb, 0xfe, 0xe4, 0xf6, 0x07, 0x16, 0xe6, 0xf1, 0xfd, 0xb6, 0x0a,
  0xeb, 0xe8, 0x07, 0xd1, 0x09, 0xe7, 0xe3, 0xea, 0xed, 0x15, 0xf9, 0xe5,
  0x0c, 0x04, 0xd6, 0x01, 0xfb, 0xf0, 0x07, 0xf7, 0x0f, 0xda, 0xeb, 0x09,
  0xdc, 0xf4, 0xee, 0xc7, 0x01, 0x01, 0xe6, 0xf2, 0xfe, 0xea, 0x05, 0x08,
  0xe9, 0xef, 0xd0, 0x04, 0x01, 0x0e, 0xf5, 0xda, 0xfd, 0xfd, 0x02, 0xe6,
  0xdb, 0xd3, 0x23, 0xc1, 0x23, 0x1a, 0xe4, 0xfa, 0xec, 0xfd, 0x1e, 0xec,
  0xdb, 0x08, 0x27, 0xee, 0x11, 0xef, 0x31, 0x1a, 0xe6, 0x1e, 0xe8, 0xe8,
  0xe0, 0x0c, 0x0f, 0x18, 0xb9, 0x0a, 0xf1, 0xe8, 0x0c, 0x1c, 0x11, 0x09,
  0x06, 0x15, 0x09, 0x04, 0xd3, 0x14, 0x0d, 0x1c, 0xc1, 0x14, 0x0a, 0xfd,
  0x0d, 0x16, 0x04, 0x1d, 0x07, 0x11, 0xf7, 0xf5, 0x10, 0x00, 0x04, 0x20,
  0xbd, 0x00, 0xf2, 0xfe, 0x20, 0x02, 0xef, 0x23, 0xcd, 0xfd, 0x10, 0xd6,
  0xdc, 0xeb, 0xfe, 0x0f, 0xf1, 0x14, 0xf4, 0x07, 0x24, 0x17, 0xe5, 0x20,
  0xe0, 0xe8, 0x00, 0xe7, 0xf3, 0xfc, 0xe6, 0x11, 0xff, 0xf3, 0x0c, 0x15,
  0x0f, 0x19, 0xfe, 0x11, 0xeb, 0xee, 0xfd, 0x03, 0x0b, 0xfe, 0x08, 0x02,
  0x24, 0xf5, 0xe2, 0x08, 0xfb, 0x19, 0xfb, 0x07, 0xfc, 0xbb, 0x03, 0x11,
  0x1c, 0xfc, 0xe0, 0xe5, 0x1e, 0xcf, 0xe2, 0x06, 0xef, 0x2c, 0x16, 0x09,
  0x15, 0xd9, 0xd6, 0xf8, 0x0a, 0xfa, 0x14, 0xe9, 0x28, 0xec, 0xff, 0x0f,
  0x00, 0x0a, 0x2f, 0x0c, 0xe8, 0xec, 0xe9, 0x0c, 0x3a, 0xf5, 0xe4, 0xc5,
  0x2a, 0xf5, 0x0d, 0x13, 0x01, 0x0a, 0xed, 0xfb, 0x09, 0x0e, 0x10, 0xe4,
  0x07, 0xca, 0xfc, 0xcd, 0xd6, 0xe2, 0x0b, 0xf3, 0xfd, 0x01, 0xbb, 0xe8,
  0xf6, 0x10, 0x28, 0xf4, 0x09, 0xcd, 0xed, 0xc3, 0xd2, 0xe8, 0x2a, 0xec,
  0x07, 0xfb, 0xe6, 0x08, 0xd4, 0x0e, 0xff, 0xda, 0x1a, 0xdb, 0x11, 0xd7,
  0xcd, 0xfe, 0x03, 0xdb, 0xfe, 0xde, 0xf9, 0xed, 0x09, 0x10, 0xf9, 0xeb,
  0xfc, 0xf0, 0x04, 0xd9, 0xff, 0xff, 0x18, 0xed, 0xdd, 0x0d, 0xd3, 0xe0,
  0xe8, 0x13, 0xfe, 0xec, 0xf1, 0x16, 0x03, 0xdf, 0x1a, 0x06, 0xfd, 0x19,
  0x02, 0x19, 0xf9, 0xc8, 0xf6, 0xd8, 0xf3, 0xf6, 0xe6, 0xf6, 0x16, 0xc6,
  0x20, 0x11, 0xe3, 0xe9, 0xef, 0x06, 0xd6, 0xe2, 0xf7, 0xbd, 0xe3, 0x12,
  0xfd, 0xed, 0xde, 0xe8, 0x0e, 0x09, 0x03, 0xe6, 0xdd, 0xeb, 0x1a, 0xd9,
  0xf1, 0xeb, 0xe4, 0xfe, 0xec, 0x11, 0x0e, 0xd9, 0xee, 0x04, 0xcc, 0x0e,
  0xed, 0xe6, 0xe9, 0xff, 0x08, 0x01, 0xef, 0xed, 0x06, 0x0f, 0x1d, 0xce,
  0x0e, 0xe9, 0x16, 0xf7, 0xfe, 0xff, 0xc3, 0xdd, 0x1c, 0xe0, 0x01, 0x28,
  0x0b, 0xf7, 0x12, 0xe3, 0xdd, 0xff, 0x0a, 0xef, 0xd9, 0xee, 0xe7, 0xe5,
  0xf2, 0x05, 0xdc, 0x11, 0x0c, 0x00, 0xff, 0xdf, 0x1e, 0xf5, 0x0e, 0xe5,
  0x0f, 0xeb, 0xec, 0x0c, 0xfb, 0x0e, 0xeb, 0xf3, 0x15, 0xea, 0x00, 0xfc,
  0xf4, 0xdf, 0x02, 0xe5, 0xfb, 0xf1, 0x81, 0x0c, 0xdc, 0x01, 0x00, 0xe7,
  0x06, 0xe9, 0xef, 0xf8, 0xf6, 0xe2, 0x15, 0xdb, 0x19, 0xfd, 0x3e, 0xfd,
  0x03, 0x12, 0x03, 0xdd, 0xd6, 0xea, 0x0a, 0x02, 0xc2, 0xea, 0x06, 0xe3,
  0x16, 0x11, 0xfa, 0x32, 0x12, 0x06, 0x02, 0xe8, 0xb7, 0xf3, 0x1d, 0x0f,
  0xc0, 0x0e, 0x07, 0xed, 0x10, 0xfc, 0xfa, 0x2a, 0xf6, 0x1e, 0x19, 0xf5,
  0xcb, 0xfa, 0xe7, 0x15, 0xcd, 0x08, 0x21, 0xe8, 0x29, 0x16, 0xe7, 0x1d,
  0xfc, 0x07, 0x38, 0xe6, 0xf6, 0xd9, 0xf5, 0x17, 0xd5, 0x08, 0x24, 0xfd,
  0x28, 0x22, 0xd5, 0x2d, 0xe5, 0xde, 0x20, 0xcd, 0xff, 0xf1, 0xed, 0x04,
  0x2c, 0xe7, 0x01, 0x07, 0xfb, 0x23, 0xd7, 0x0e, 0xf0, 0x2b, 0x1b, 0x03,
  0xe5, 0xfd, 0x04, 0x06, 0xf8, 0xdc, 0x14, 0x06, 0xf2, 0x2b, 0xee, 0x12,
  0x05, 0xf1, 0xfa, 0xff, 0x05, 0x0c, 0xf1, 0xec, 0x16, 0xcf, 0x10, 0x03,
  0xeb, 0x04, 0xe0, 0xeb, 0x00, 0x0e, 0x04, 0x1e, 0xd9, 0xcc, 0xf9, 0xe7,
  0xf1, 0xb2, 0xeb, 0xe7, 0x06, 0xe7, 0xe9, 0xc5, 0xe2, 0xe1, 0xee, 0x1a,
  0xfc, 0xd9, 0x0b, 0xff, 0xf4, 0xa3, 0xd5, 0x13, 0xf2, 0xfe, 0x21, 0xf5,
  0x18, 0xdb, 0xe5, 0xf1, 0xe2, 0x07, 0x1e, 0x13, 0x28, 0x0c, 0xaf, 0x08,
  0x00, 0xcd, 0x1e, 0xe1, 0xde, 0xa8, 0xac, 0x2a, 0xf0, 0x19, 0x18, 0x15,
  0x2c, 0x28, 0xbb, 0x0b, 0x10, 0xee, 0x1b, 0xc8, 0x25, 0xd7, 0xb8, 0x3d,
  0x14, 0x14, 0x22, 0xec, 0x19, 0x13, 0xcc, 0x16, 0xde, 0xc8, 0xf6, 0xb8,
  0xfd, 0xf9, 0xea, 0x07, 0xf2, 0xed, 0x1d, 0xf3, 0xf7, 0xf7, 0x06, 0xf3,
  0xdd, 0xee, 0xfb, 0xbf, 0xdd, 0x02, 0xff, 0x03, 0x0b, 0xe7, 0xe8, 0xe9,
  0xe1, 0xed, 0x04, 0xe5, 0xf3, 0xf5, 0x0c, 0xd2, 0xf3, 0x06, 0xee, 0xce,
  0x07, 0xe8, 0xfe, 0xf3, 0xc8, 0xeb, 0x02, 0xe1, 0xe8, 0xf1, 0xda, 0xeb,
  0xe7, 0x0b, 0x0b, 0xfb, 0xe7, 0x06, 0xf5, 0xed, 0xed, 0x03, 0xfc, 0xf1,
  0x11, 0x17, 0xd2, 0x1f, 0xeb, 0xe4, 0xe3, 0x04, 0xe8, 0xf6, 0x07, 0xf3,
  0xd2, 0x11, 0xf5, 0xe8, 0x06, 0xe8, 0xf7, 0xfe, 0xdf, 0xff, 0xfc, 0xf2,
  0xd4, 0x24, 0xf6, 0x18, 0xce, 0x15, 0xef, 0xea, 0xf6, 0x08, 0xe9, 0x03,
  0xda, 0xd2, 0xe4, 0xdf, 0xec, 0x1b, 0xda, 0xf7, 0xdc, 0x07, 0xd6, 0x0a,
  0xfa, 0x29, 0xed, 0x24, 0xf9, 0xcc, 0xf8, 0xac, 0xfa, 0xe5, 0x04, 0x06,
  0xe1, 0xfb, 0xdf, 0x13, 0x03, 0xf5, 0xe8, 0x16, 0x04, 0xed, 0xf5, 0x22,
  0xe1, 0xe4, 0x00, 0xee, 0x17, 0x0a, 0xe7, 0x08, 0xf5, 0xef, 0x19, 0xe2,
  0xf6, 0x06, 0xd6, 0x1b, 0xf7, 0x17, 0x18, 0x10, 0xcb, 0x13, 0xdd, 0x14,
  0xee, 0x22, 0x0c, 0x01, 0x1a, 0xed, 0xea, 0xfb, 0x07, 0x15, 0x29, 0x23,
  0xef, 0x01, 0xea, 0x24, 0x07, 0xd8, 0xf4, 0xf2, 0x0a, 0xe8, 0x02, 0x3e,
  0x18, 0xfd, 0x08, 0xf9, 0x08, 0xea, 0xec, 0x1f, 0xd3, 0xf6, 0x17, 0xd5,
  0x1c, 0xe9, 0xdc, 0x37, 0x28, 0xfb, 0x0c, 0x04, 0x17, 0x09, 0xee, 0x08,
  0x09, 0xe1, 0x22, 0xe1, 0x2c, 0x19, 0xe3, 0x32, 0x1c, 0x25, 0x1c, 0xf5,
  0x27, 0x15, 0x08, 0x00, 0x16, 0xfb, 0xfe, 0xfb, 0x29, 0xfc, 0xe9, 0x07,
  0x29, 0x20, 0x06, 0xf2, 0x08, 0x22, 0xe7, 0x0e, 0xf9, 0xfc, 0x0d, 0xfa,
  0x46, 0x08, 0xea, 0xec, 0xfe, 0x14, 0x12, 0xde, 0xe0, 0x3a, 0x17, 0xe2,
  0x1a, 0x0e, 0x02, 0x0e, 0xf2, 0x0a, 0x1a, 0xba, 0x1b, 0xe8, 0xe4, 0xd0,
  0x1d, 0x3d, 0xb1, 0x06, 0xdb, 0x13, 0xcd, 0xf1, 0xfb, 0x0b, 0x04, 0xc7,
  0x08, 0xfa, 0xef, 0xc0, 0x23, 0x1b, 0xf2, 0x12, 0xba, 0x10, 0xc8, 0xdd,
  0x35, 0x0d, 0xfa, 0xc8, 0x26, 0x08, 0xf7, 0xfb, 0xd9, 0xf8, 0x15, 0x1c,
  0xf7, 0x23, 0xd3, 0xf4, 0xe6, 0xb1, 0x03, 0xeb, 0xea, 0xd8, 0xe0, 0x22,
  0xaa, 0xe7, 0xde, 0x05, 0x10, 0x00, 0x0d, 0x08, 0xf8, 0xe5, 0x02, 0x13,
  0x1c, 0x00, 0x19, 0x0d, 0x03, 0xde, 0xff, 0x2b, 0x20, 0xfd, 0x06, 0xf4,
  0xdd, 0xe2, 0x1d, 0x1a, 0xfa, 0xc0, 0xe1, 0xef, 0xda, 0xeb, 0x15, 0xf2,
  0x28, 0x10, 0xbb, 0x2b, 0xe8, 0xf1, 0x09, 0xdb, 0xf0, 0xcd, 0xdd, 0xe0,
  0x00, 0xf3, 0x0c, 0xfd, 0x04, 0x26, 0xae, 0x1c, 0xf6, 0xed, 0xfe, 0xde,
  0xca, 0xcf, 0xf8, 0x00, 0x0d, 0x11, 0xe7, 0xf2, 0x25, 0x10, 0xda, 0x1d,
  0xed, 0x06, 0xd5, 0x0a, 0xd2, 0x1d, 0xe2, 0x1c, 0xf5, 0x0e, 0xd5, 0x1b,
  0x03, 0x0c, 0xd8, 0xee, 0x0a, 0x00, 0x0d, 0xe5, 0x0d, 0xc9, 0x15, 0x04,
  0x09, 0x12, 0xfb, 0xf7, 0x0c, 0xf5, 0xde, 0x0f, 0x01, 0x08, 0x04, 0x04,
  0xfa, 0x18, 0x06, 0xed, 0xc6, 0x02, 0x05, 0xe0, 0xfd, 0x0e, 0xf8, 0x04,
  0xeb, 0xf7, 0xf0, 0xfd, 0xec, 0x0b, 0xf6, 0xf2, 0xec, 0x03, 0xf4, 0x09,
  0xdc, 0xee, 0x14, 0x11, 0x0d, 0xdb, 0xf3, 0xd0, 0xe4, 0xfe, 0xf9, 0xcd,
  0xfe, 0x18, 0xde, 0xfe, 0x06, 0x23, 0xea, 0x28, 0x1b, 0x01, 0xe5, 0xd9,
  0xf6, 0xf8, 0xf2, 0xc8, 0xcb, 0x10, 0xfb, 0xda, 0xda, 0x12, 0x08, 0x24,
  0xf5, 0x0a, 0xfd, 0xbd, 0xf2, 0xef, 0xe3, 0xd6, 0xb8, 0x05, 0xed, 0xe5,
  0xef, 0x1a, 0x1d, 0x10, 0x02, 0xfa, 0x0e, 0xde, 0x13, 0x13, 0x07, 0x0f,
  0xdd, 0x0e, 0x07, 0x0f, 0x10, 0x01, 0xdb, 0x21, 0x14, 0x06, 0x18, 0x35,
  0x2e, 0xf4, 0x01, 0x10, 0xfb, 0xed, 0x03, 0x0c, 0xdf, 0xe3, 0x00, 0xfb,
  0xff, 0x11, 0x22, 0x48, 0x0c, 0xf0, 0xf7, 0xf8, 0x08, 0xde, 0xe0, 0x12,
  0xf6, 0xcc, 0x1b, 0x00, 0x3f, 0x19, 0xf4, 0x2b, 0xf7, 0xf4, 0xfe, 0x07,
  0x11, 0xda, 0xc8, 0x13, 0x03, 0xe3, 0x05, 0xfb, 0x2c, 0xdd, 0xe8, 0x25,
  0x20, 0x00, 0x13, 0x09, 0xfe, 0xfb, 0xda, 0x04, 0x03, 0x06, 0x14, 0x21,
  0x12, 0xec, 0xeb, 0xf0, 0x1b, 0x03, 0xfa, 0xdd, 0xff, 0x0f, 0xfe, 0xf3,
  0xf7, 0x1c, 0xf9, 0xfb, 0x3c, 0x1d, 0x1a, 0xc8, 0xec, 0x09, 0x03, 0xf4,
  0xb8, 0x3d, 0xfb, 0x00, 0xf2, 0x26, 0xf5, 0x16, 0x31, 0x1c, 0xef, 0xe8,
  0x02, 0xeb, 0xff, 0x0d, 0xd9, 0x17, 0xeb, 0xf0, 0xc6, 0xff, 0xad, 0xe8,
  0x02, 0x22, 0x07, 0x02, 0xcf, 0xeb, 0xde, 0x1d, 0x91, 0xd4, 0xf5, 0xf5,
  0xf4, 0x04, 0xb4, 0xfd, 0x0f, 0x24, 0xfb, 0xf2, 0xcc, 0xf4, 0x01, 0x23,
  0xae, 0xe6, 0xbc, 0x16, 0xee, 0xd7, 0xef, 0x00, 0xf0, 0x13, 0xb5, 0x20,
  0xd4, 0x2f, 0xed, 0x39, 0xf2, 0x0b, 0xc9, 0x0e, 0xfd, 0xbe, 0x04, 0x1c,
  0x00, 0xe9, 0xcc, 0x0b, 0x04, 0xfc, 0xdc, 0x19, 0xeb, 0x16, 0x9c, 0x28,
  0xea, 0xde, 0x2d, 0xeb, 0xf3, 0xda, 0xce, 0x10, 0x02, 0x24, 0xf1, 0x12,
  0xe2, 0x1c, 0xaa, 0x11, 0x02, 0x10, 0x16, 0xf2, 0x32, 0xf0, 0xee, 0xf3,
  0xff, 0x1b, 0xeb, 0x06, 0xd7, 0x1a, 0xbf, 0x14, 0xeb, 0x06, 0x2c, 0xfb,
  0x15, 0xf7, 0xfa, 0x15, 0x1e, 0xe3, 0x0b, 0xe2, 0xad, 0x01, 0xf5, 0x01,
  0xe3, 0x14, 0xc6, 0xea, 0x0a, 0x04, 0x08, 0xcc, 0x15, 0x02, 0x17, 0xab,
  0xd3, 0x26, 0x15, 0xec, 0x01, 0x11, 0x05, 0x07, 0xf9, 0x07, 0x0c, 0xbc,
  0xfa, 0xcc, 0x09, 0xf2, 0xfe, 0x00, 0xef, 0x0f, 0xfb, 0xff, 0xf4, 0x37,
  0xf4, 0x0d, 0x0d, 0x00, 0x1a, 0xd3, 0xee, 0xfe, 0x03, 0xfb, 0xfb, 0x10,
  0xeb, 0xea, 0xdd, 0xed, 0x13, 0x1f, 0x04, 0xf5, 0x25, 0xcd, 0xef, 0xc5,
  0xc7, 0xf1, 0xf1, 0xe2, 0xdf, 0xdf, 0xda, 0xde, 0xf7, 0x11, 0x22, 0xfc,
  0x18, 0xea, 0x07, 0xd5, 0xc5, 0xfd, 0x3a, 0xdf, 0xea, 0xd5, 0xb5, 0xf8,
  0xfe, 0x2b, 0x03, 0xea, 0xfe, 0xcb, 0xeb, 0xef, 0xfb, 0x0c, 0x25, 0xea,
  0xf2, 0xe6, 0xdc, 0xd6, 0xea, 0x1d, 0x09, 0xf4, 0xfa, 0xe9, 0xea, 0xe0,
  0x14, 0xd8, 0xf6, 0xf7, 0xe1, 0xd6, 0xef, 0xe0, 0x06, 0x0c, 0xf1, 0xf7,
  0xee, 0xe6, 0xe6, 0x05, 0x3a, 0xf0, 0xdc, 0x02, 0xf4, 0xf2, 0x0f, 0xcb,
  0xc8, 0xe0, 0xde, 0x03, 0xff, 0x02, 0xf6, 0xf2, 0x19, 0xd1, 0xf7, 0x19,
  0xff, 0xfc, 0x29, 0xfe, 0x06, 0xc9, 0xe1, 0xef, 0xf3, 0xfe, 0xe7, 0xfe,
  0x1d, 0xf5, 0xc1, 0xff, 0xe8, 0x13, 0x3b, 0xce, 0x16, 0xde, 0xad, 0xf5,
  0xf5, 0x11, 0xf3, 0xfd, 0x18, 0x0a, 0xe0, 0x11, 0xfe, 0x10, 0x06, 0xf0,
  0x18, 0xd1, 0xcb, 0x24, 0xe8, 0x04, 0x2f, 0x06, 0x0c, 0x09, 0xf6, 0xfb,
  0x0f, 0xf6, 0x27, 0xbc, 0xfa, 0xf0, 0xbc, 0x14, 0xd5, 0x0c, 0x10, 0xf6,
  0x00, 0x24, 0x09, 0x0d, 0x1d, 0x05, 0x01, 0xc4, 0xec, 0xb1, 0xb9, 0x2e,
  0x01, 0x0b, 0x02, 0x18, 0x0e, 0x0f, 0x14, 0xfd, 0xfa, 0xf3, 0x21, 0xcd,
  0xde, 0xc1, 0xb1, 0x0d, 0xf3, 0x12, 0x27, 0x06, 0x23, 0x16, 0xfa, 0xed,
  0xe9, 0xf9, 0x2b, 0xc8, 0x0b, 0x96, 0xe1, 0x04, 0x17, 0x2b, 0x0f, 0xdd,
  0x35, 0x07, 0xd2, 0x0a, 0xec, 0xe0, 0xda, 0xcb, 0x04, 0xd6, 0xe8, 0xf8,
  0xfd, 0xfd, 0x0c, 0xac, 0xe4, 0x08, 0x12, 0x05, 0xeb, 0xfd, 0xda, 0xc7,
  0x1f, 0xeb, 0x15, 0xcb, 0x19, 0xc9, 0xec, 0xb3, 0xdc, 0xe6, 0x19, 0xf3,
  0xf4, 0x04, 0xd5, 0xf3, 0xf0, 0x0d, 0x1e, 0xea, 0x19, 0x9b, 0xfd, 0xae,
  0xdb, 0xef, 0x02, 0xf2, 0xea, 0x1b, 0xb9, 0x15, 0xfe, 0x15, 0x0c, 0xf8,
  0x0c, 0xa9, 0xed, 0xd2, 0xe9, 0xfc, 0x06, 0xd9, 0x13, 0x22, 0xd8, 0x33,
  0xdd, 0xf7, 0x17, 0xb1, 0xf1, 0xdd, 0x18, 0xeb, 0xe3, 0xdf, 0x1b, 0xee,
  0x14, 0x06, 0x9b, 0x0f, 0xe5, 0x0b, 0x10, 0xf3, 0xf5, 0xe5, 0x08, 0xd0,
  0xca, 0xf6, 0x04, 0xd9, 0x26, 0xfe, 0xba, 0x22, 0xfa, 0x0a, 0x09, 0xd0,
  0xf0, 0xf1, 0xf8, 0x16, 0xcd, 0xe8, 0x14, 0xe3, 0xfc, 0xe5, 0xe4, 0xcb,
  0xfe, 0xfa, 0x15, 0x04, 0x28, 0x00, 0x0c, 0xd0, 0xe7, 0x00, 0x24, 0x05,
  0xe0, 0xdf, 0xeb, 0xd4, 0xe8, 0x2c, 0x1f, 0xed, 0x0e, 0xdf, 0xef, 0xf1,
  0xe2, 0xf9, 0x05, 0xe7, 0x0b, 0xec, 0xe5, 0xf9, 0xff, 0x27, 0x0f, 0xcd,
  0x07, 0xe5, 0xf7, 0x01, 0xe3, 0x0d, 0x0c, 0x08, 0x01, 0xf0, 0xc2, 0xfb,
  0x10, 0x17, 0x14, 0x0e, 0x0e, 0xf3, 0x05, 0xff, 0x0a, 0x07, 0x0a, 0x08,
  0xfb, 0x17, 0xf2, 0x0b, 0x02, 0x1d, 0x04, 0xe6, 0x12, 0x06, 0x05, 0x1c,
  0x33, 0x0c, 0x20, 0x06, 0xe1, 0x01, 0xe4, 0x00, 0xe0, 0x02, 0x01, 0x18,
  0x07, 0x0a, 0xe4, 0xe0, 0x31, 0xee, 0x06, 0x0b, 0xe9, 0x20, 0xef, 0x07,
  0xfe, 0x09, 0x27, 0x06, 0x22, 0x02, 0xf5, 0xe5, 0x35, 0xd5, 0x00, 0x13,
  0xe0, 0x23, 0x1a, 0xf7, 0x1b, 0xf5, 0xfc, 0xde, 0x15, 0xf1, 0xd3, 0xea,
  0x08, 0xd9, 0xeb, 0x13, 0xdf, 0x16, 0x1a, 0xd3, 0x37, 0xff, 0x02, 0xca,
  0x09, 0x09, 0x04, 0x0b, 0xed, 0xd9, 0x0c, 0x0a, 0xe2, 0x05, 0x08, 0xee,
  0x16, 0xdc, 0x12, 0xff, 0xfc, 0xfc, 0x0c, 0x14, 0x16, 0xde, 0xbe, 0x11,
  0x04, 0x03, 0xfc, 0x05, 0xf9, 0xbc, 0xda, 0x0d, 0xf0, 0xf9, 0x15, 0xf3,
  0x16, 0xf0, 0xdd, 0x04, 0x07, 0x1a, 0x31, 0xf2, 0x10, 0xcf, 0xd9, 0x12,
  0xe2, 0x07, 0xf4, 0xe6, 0xf5, 0xee, 0xd6, 0xeb, 0xfa, 0x05, 0xf2, 0xdb,
  0xdc, 0xa6, 0xbd, 0x18, 0xf6, 0xf9, 0x13, 0x10, 0x00, 0xf5, 0xc4, 0xff,
  0xe9, 0xdd, 0x0d, 0xeb, 0xf8, 0xcb, 0xbe, 0x15, 0xd3, 0x1a, 0x12, 0x04,
  0xf9, 0x12, 0x05, 0xee, 0x00, 0xd9, 0x17, 0xce, 0x0b, 0xe7, 0xea, 0x21,
  0xfa, 0xf9, 0x2a, 0xe5, 0x19, 0x04, 0x23, 0xe4, 0xf9, 0xf1, 0xe2, 0xca,
  0xff, 0x35, 0x13, 0xe6, 0xec, 0xf5, 0xf3, 0xfd, 0xdb, 0x0c, 0x14, 0x02,
  0xf3, 0xf1, 0x12, 0xc6, 0xf7, 0x3e, 0x17, 0xef, 0x06, 0x1b, 0x05, 0x09,
  0xbd, 0x0b, 0x1c, 0xde, 0xf7, 0xfa, 0x13, 0xd2, 0xc9, 0x0b, 0xf2, 0x0b,
  0x1e, 0x18, 0xef, 0x05, 0x2c, 0x03, 0xe6, 0xf7, 0xdf, 0xd1, 0xff, 0xba,
  0xec, 0xd2, 0xe1, 0x1b, 0x04, 0x0b, 0xf8, 0x43, 0xf1, 0x17, 0xf0, 0x15,
  0x07, 0xd7, 0x16, 0xf0, 0x0f, 0xec, 0xe7, 0xf3, 0xfa, 0x07, 0xd1, 0xfb,
  0x2f, 0xff, 0xdb, 0x01, 0xd1, 0xc0, 0x2a, 0xb0, 0x0a, 0xf6, 0xee, 0xf2,
  0xf9, 0x02, 0xed, 0xe7, 0xfb, 0xfe, 0xe7, 0x17, 0xd4, 0xde, 0x15, 0xe8,
  0x0e, 0x13, 0x19, 0xcb, 0xf8, 0xf5, 0x14, 0x08, 0x0b, 0xf4, 0x16, 0x0c,
  0xdb, 0xe2, 0xdd, 0xf8, 0x11, 0x27, 0x0c, 0xeb, 0x0b, 0xe0, 0xe2, 0xff,
  0xfc, 0xe6, 0x29, 0x1a, 0xde, 0x13, 0xef, 0x0a, 0xf8, 0xf3, 0x08, 0xc8,
  0x04, 0x1d, 0xed, 0x2b, 0xf9, 0xde, 0x1c, 0x01, 0x14, 0x04, 0x15, 0x06,
  0xff, 0x0c, 0xfd, 0xfe, 0xef, 0x0c, 0x0f, 0x3b, 0xeb, 0xd5, 0x09, 0x0f,
  0xff, 0x07, 0xef, 0xf8, 0xfa, 0xd8, 0xf0, 0x10, 0xfc, 0x18, 0xed, 0x36,
  0x17, 0xf1, 0xf0, 0x1e, 0x25, 0x11, 0x30, 0x20, 0xfe, 0xe8, 0xe9, 0x20,
  0x02, 0x00, 0xfd, 0x3e, 0x0a, 0x01, 0x2a, 0x1b, 0x23, 0x10, 0x2f, 0x2b,
  0x14, 0xeb, 0x08, 0x14, 0xdd, 0xe0, 0x13, 0x15, 0xd4, 0xe5, 0x1b, 0xe7,
  0x26, 0xdf, 0xf0, 0xf9, 0x15, 0xfd, 0xeb, 0x1a, 0xff, 0xf8, 0x18, 0x15,
  0xd9, 0xf5, 0x19, 0xfc, 0x0f, 0x0b, 0xfa, 0x15, 0xdf, 0x08, 0x21, 0x2f,
  0x15, 0x0f, 0xfd, 0xec, 0xeb, 0xf1, 0x02, 0x13, 0xfc, 0x06, 0x1f, 0xec,
  0x19, 0xee, 0x09, 0x17, 0x11, 0x03, 0x06, 0xf1, 0xe5, 0xe3, 0x18, 0xfa,
  0xf3, 0xe0, 0xd8, 0xf9, 0xd1, 0xf0, 0x1a, 0x33, 0x0d, 0xd4, 0xe0, 0x01,
  0xe0, 0xdf, 0x41, 0xe8, 0xf7, 0xfb, 0x00, 0xed, 0x12, 0x0d, 0x16, 0xed,
  0x00, 0x13, 0xf7, 0xf7, 0x00, 0x00, 0x11, 0xf9, 0xf2, 0x0a, 0x0c, 0xfb,
  0xf4, 0x24, 0x2d, 0xf7, 0x1e, 0x03, 0xdd, 0x09, 0xf7, 0xfa, 0xfb, 0x07,
  0x02, 0x04, 0xf4, 0x01, 0xf6, 0x33, 0x14, 0xf0, 0x02, 0x04, 0x11, 0x00,
  0xe5, 0x09, 0x05, 0x02, 0x05, 0x05, 0x13, 0xf8, 0xe7, 0x08, 0x20, 0xf9,
  0xd5, 0xe1, 0xe4, 0x1a, 0xf4, 0x01, 0x07, 0x0a, 0x10, 0x1c, 0x0d, 0xf3,
  0x05, 0x07, 0xf8, 0x13, 0xe5, 0x0d, 0x00, 0x1f, 0xd6, 0x20, 0x0e, 0xfa,
  0x0e, 0x1d, 0x31, 0x14, 0x10, 0x05, 0x0e, 0xe8, 0x07, 0x11, 0x0b, 0x30,
  0x03, 0x14, 0x1a, 0xf8, 0x16, 0x37, 0x1f, 0x13, 0xe3, 0x2e, 0x06, 0xf8,
  0xe2, 0x02, 0xf0, 0x02, 0x0a, 0x22, 0x1a, 0xfd, 0x19, 0x07, 0x22, 0x0e,
  0xe1, 0x37, 0x04, 0x20, 0x04, 0x0c, 0x01, 0xd8, 0xfd, 0x0f, 0x22, 0xef,
  0xfb, 0x08, 0x28, 0xe6, 0x03, 0x23, 0xf5, 0xc4, 0xe9, 0x03, 0xef, 0x18,
  0x20, 0xf3, 0x06, 0xe0, 0xfb, 0x12, 0x1d, 0xfc, 0xea, 0x10, 0x19, 0xe8,
  0xf2, 0x04, 0x0f, 0x35, 0xf8, 0xea, 0x12, 0xee, 0x13, 0x22, 0x3f, 0x0b,
  0xee, 0xcd, 0xec, 0xeb, 0x0e, 0x1d, 0xea, 0x20, 0xf4, 0xc8, 0x0b, 0x20,
  0x18, 0xf6, 0x1b, 0xf9, 0xfb, 0xf5, 0xf4, 0x2a, 0xeb, 0x0e, 0xea, 0x20,
  0x1d, 0xc4, 0x05, 0x05, 0x22, 0xfb, 0x51, 0xcc, 0xee, 0x0f, 0xf0, 0x18,
  0xa6, 0xfe, 0xff, 0xff, 0x04, 0x00, 0x00, 0x00, 0x28, 0x00, 0x00, 0x00,
  0x22, 0xff, 0xff, 0xff, 0xdd, 0x00, 0x00, 0x00, 0xc7, 0x00, 0x00, 0x00,
  0xa7, 0xff, 0xff, 0xff, 0x4c, 0xff, 0xff, 0xff, 0x48, 0x01, 0x00, 0x00,
  0x98, 0x00, 0x00, 0x00, 0x87, 0xfe, 0xff, 0xff, 0x1b, 0x00, 0x00, 0x00,
  0x48, 0x00, 0x00, 0x00, 0xda, 0xfe, 0xff, 0xff, 0x04, 0x00, 0x00, 0x00,
  0x08, 0x00, 0x00, 0x00, 0xff, 0xff, 0xff, 0xff, 0x60, 0x01, 0x00, 0x00,
  0xee, 0xfe, 0xff, 0xff, 0x04, 0x00, 0x00, 0x00, 0x10, 0x00, 0x00, 0x00,
  0x01, 0x00, 0x00, 0x00, 0x2c, 0x00, 0x00, 0x00, 0x01, 0x00, 0x00, 0x00,
  0x10, 0x00, 0x00, 0x00, 0x0a, 0xff, 0xff, 0xff, 0x04, 0x00, 0x00, 0x00,
  0x10, 0x00, 0x00, 0x00, 0x01, 0x00, 0x00, 0x00, 0x01, 0x00, 0x00, 0x00,
  0x2c, 0x00, 0x00, 0x00, 0x08, 0x00, 0x00, 0x00, 0x26, 0xff, 0xff, 0xff,
  0x04, 0x00, 0x00, 0x00, 0x10, 0x00, 0x00, 0x00, 0x01, 0x00, 0x00, 0x00,
  0x57, 0x00, 0x00, 0x00, 0x01, 0x00, 0x00, 0x00, 0x08, 0x00, 0x00, 0x00,
  0x42, 0xff, 0xff, 0xff, 0x04, 0x00, 0x00, 0x00, 0x10, 0x00, 0x00, 0x00,
  0x01, 0x00, 0x00, 0x00, 0x01, 0x00, 0x00, 0x00, 0x57, 0x00, 0x00, 0x00,
  0x0d, 0x00, 0x00, 0x00, 0x90, 0xf0, 0xff, 0xff, 0x94, 0xf0, 0xff, 0xff,
  0x0f, 0x00, 0x00, 0x00, 0x4d, 0x4c, 0x49, 0x52, 0x20, 0x43, 0x6f, 0x6e,
  0x76, 0x65, 0x72, 0x74, 0x65, 0x64, 0x2e, 0x00, 0x01, 0x00, 0x00, 0x00,
  0x14, 0x00, 0x00, 0x00, 0x00, 0x00, 0x0e, 0x00, 0x18, 0x00, 0x14, 0x00,
  0x10, 0x00, 0x0c, 0x00, 0x08, 0x00, 0x04, 0x00, 0x0e, 0x00, 0x00, 0x00,
  0x14, 0x00, 0x00, 0x00, 0x1c, 0x00, 0x00, 0x00, 0x84, 0x02, 0x00, 0x00,
  0x88, 0x02, 0x00, 0x00, 0x8c, 0x02, 0x00, 0x00, 0x04, 0x00, 0x00, 0x00,
  0x6d, 0x61, 0x69, 0x6e, 0x00, 0x00, 0x00, 0x00, 0x0b, 0x00, 0x00, 0x00,
  0x48, 0x02, 0x00, 0x00, 0xec, 0x01, 0x00, 0x00, 0xb8, 0x01, 0x00, 0x00,
  0x68, 0x01, 0x00, 0x00, 0x44, 0x01, 0x00, 0x00, 0x00, 0x01, 0x00, 0x00,
  0xdc, 0x00, 0x00, 0x00, 0x9c, 0x00, 0x00, 0x00, 0x78, 0x00, 0x00, 0x00,
  0x40, 0x00, 0x00, 0x00, 0x04, 0x00, 0x00, 0x00, 0x4a, 0xfe, 0xff, 0xff,
  0x1c, 0x00, 0x00, 0x00, 0x00, 0x00, 0x00, 0x09, 0x1c, 0x00, 0x00, 0x00,
  0x20, 0x00, 0x00, 0x00, 0x04, 0x00, 0x00, 0x00, 0x00, 0x00, 0x06, 0x00,
  0x08, 0x00, 0x04, 0x00, 0x06, 0x00, 0x00, 0x00, 0x00, 0x00, 0x80, 0x3f,
  0x01, 0x00, 0x00, 0x00, 0x16, 0x00, 0x00, 0x00, 0x01, 0x00, 0x00, 0x00,
  0x15, 0x00, 0x00, 0x00, 0x82, 0xfe, 0xff, 0xff, 0x14, 0x00, 0x00, 0x00,
  0x00, 0x00, 0x00, 0x08, 0x10, 0x00, 0x00, 0x00, 0x14, 0x00, 0x00, 0x00,
  0x03, 0x00, 0x00, 0x00, 0x68, 0xf1, 0xff, 0xff, 0x01, 0x00, 0x00, 0x00,
  0x15, 0x00, 0x00, 0x00, 0x03, 0x00, 0x00, 0x00, 0x14, 0x00, 0x00, 0x00,
  0x07, 0x00, 0x00, 0x00, 0x06, 0x00, 0x00, 0x00, 0x5a, 0xfe, 0xff, 0xff,
  0x08, 0x00, 0x00, 0x00, 0x0c, 0x00, 0x00, 0x00, 0x01, 0x00, 0x00, 0x00,
  0x14, 0x00, 0x00, 0x00, 0x02, 0x00, 0x00, 0x00, 0x13, 0x00, 0x00, 0x00,
  0x05, 0x00, 0x00, 0x00, 0xd6, 0xfe, 0xff, 0xff, 0x14, 0x00, 0x00, 0x00,
  0x00, 0x00, 0x00, 0x05, 0x20, 0x00, 0x00, 0x00, 0x24, 0x00, 0x00, 0x00,
  0x02, 0x00, 0x00, 0x00, 0x42, 0xff, 0xff, 0xff, 0x02, 0x00, 0x00, 0x00,
  0x01, 0x00, 0x00, 0x00, 0x02, 0x00, 0x00, 0x00, 0x01, 0x00, 0x00, 0x00,
  0x01, 0x00, 0x00, 0x00, 0x13, 0x00, 0x00, 0x00, 0x01, 0x00, 0x00, 0x00,
  0x12, 0x00, 0x00, 0x00, 0xb6, 0xfe, 0xff, 0xff, 0x08, 0x00, 0x00, 0x00,
  0x0c, 0x00, 0x00, 0x00, 0x01, 0x00, 0x00, 0x00, 0x12, 0x00, 0x00, 0x00,
  0x02, 0x00, 0x00, 0x00, 0x11, 0x00, 0x00, 0x00, 0x04, 0x00, 0x00, 0x00,
  0x32, 0xff, 0xff, 0xff, 0x14, 0x00, 0x00, 0x00, 0x00, 0x00, 0x00, 0x01,
  0x1c, 0x00, 0x00, 0x00, 0x20, 0x00, 0x00, 0x00, 0x01, 0x00, 0x00, 0x00,
  0x24, 0xff, 0xff, 0xff, 0x00, 0x00, 0x00, 0x01, 0x01, 0x00, 0x00, 0x00,
  0x01, 0x00, 0x00, 0x00, 0x01, 0x00, 0x00, 0x00, 0x11, 0x00, 0x00, 0x00,
  0x03, 0x00, 0x00, 0x00, 0x10, 0x00, 0x00, 0x00, 0x09, 0x00, 0x00, 0x00,
  0x08, 0x00, 0x00, 0x00, 0x16, 0xff, 0xff, 0xff, 0x08, 0x00, 0x00, 0x00,
  0x0c, 0x00, 0x00, 0x00, 0x01, 0x00, 0x00, 0x00, 0x10, 0x00, 0x00, 0x00,
  0x02, 0x00, 0x00, 0x00, 0x0f, 0x00, 0x00, 0x00, 0x03, 0x00, 0x00, 0x00,
  0x92, 0xff, 0xff, 0xff, 0x24, 0x00, 0x00, 0x00, 0x00, 0x00, 0x00, 0x05,
  0x30, 0x00, 0x00, 0x00, 0x34, 0x00, 0x00, 0x00, 0x02, 0x00, 0x00, 0x00,
  0x00, 0x00, 0x0e, 0x00, 0x14, 0x00, 0x00, 0x00, 0x10, 0x00, 0x0c, 0x00,
  0x08, 0x00, 0x04, 0x00, 0x0e, 0x00, 0x00, 0x00, 0x02, 0x00, 0x00, 0x00,
  0x01, 0x00, 0x00, 0x00, 0x02, 0x00, 0x00, 0x00, 0x01, 0x00, 0x00, 0x00,
  0x01, 0x00, 0x00, 0x00, 0x0f, 0x00, 0x00, 0x00, 0x01, 0x00, 0x00, 0x00,
  0x0e, 0x00, 0x00, 0x00, 0x82, 0xff, 0xff, 0xff, 0x08, 0x00, 0x00, 0x00,
  0x0c, 0x00, 0x00, 0x00, 0x01, 0x00, 0x00, 0x00, 0x0e, 0x00, 0x00, 0x00,
  0x02, 0x00, 0x00, 0x00, 0x0d, 0x00, 0x00, 0x00, 0x02, 0x00, 0x00, 0x00,
  0x00, 0x00, 0x0e, 0x00, 0x18, 0x00, 0x14, 0x00, 0x10, 0x00, 0x0c, 0x00,
  0x0b, 0x00, 0x04, 0x00, 0x0e, 0x00, 0x00, 0x00, 0x20, 0x00, 0x00, 0x00,
  0x00, 0x00, 0x00, 0x01, 0x28, 0x00, 0x00, 0x00, 0x2c, 0x00, 0x00, 0x00,
  0x01, 0x00, 0x00, 0x00, 0x0c, 0x00, 0x10, 0x00, 0x00, 0x00, 0x0c, 0x00,
  0x08, 0x00, 0x07, 0x00, 0x0c, 0x00, 0x00, 0x00, 0x00, 0x00, 0x00, 0x01,
  0x01, 0x00, 0x00, 0x00, 0x01, 0x00, 0x00, 0x00, 0x01, 0x00, 0x00, 0x00,
  0x0d, 0x00, 0x00, 0x00, 0x03, 0x00, 0x00, 0x00, 0x0c, 0x00, 0x00, 0x00,
  0x0b, 0x00, 0x00, 0x00, 0x0a, 0x00, 0x00, 0x00, 0x00, 0x00, 0x0a, 0x00,
  0x0c, 0x00, 0x00, 0x00, 0x08, 0x00, 0x04, 0x00, 0x0a, 0x00, 0x00, 0x00,
  0x08, 0x00, 0x00, 0x00, 0x0c, 0x00, 0x00, 0x00, 0x01, 0x00, 0x00, 0x00,
  0x0c, 0x00, 0x00, 0x00, 0x02, 0x00, 0x00, 0x00, 0x00, 0x00, 0x00, 0x00,
  0x01, 0x00, 0x00, 0x00, 0x01, 0x00, 0x00, 0x00, 0x16, 0x00, 0x00, 0x00,
  0x01, 0x00, 0x00, 0x00, 0x00, 0x00, 0x00, 0x00, 0x17, 0x00, 0x00, 0x00,
  0xe8, 0x0c, 0x00, 0x00, 0x78, 0x0c, 0x00, 0x00, 0x24, 0x0c, 0x00, 0x00,
  0xcc, 0x0b, 0x00, 0x00, 0x74, 0x0b, 0x00, 0x00, 0x28, 0x0b, 0x00, 0x00,
  0xac, 0x0a, 0x00, 0x00, 0x40, 0x0a, 0x00, 0x00, 0x14, 0x09, 0x00, 0x00,
  0xe8, 0x07, 0x00, 0x00, 0x1c, 0x07, 0x00, 0x00, 0x50, 0x06, 0x00, 0x00,
  0xcc, 0x05, 0x00, 0x00, 0xe0, 0x04, 0x00, 0x00, 0x5c, 0x04, 0x00, 0x00,
  0xe0, 0x03, 0x00, 0x00, 0x5c, 0x03, 0x00, 0x00, 0x60, 0x02, 0x00, 0x00,
  0xdc, 0x01, 0x00, 0x00, 0x60, 0x01, 0x00, 0x00, 0xf4, 0x00, 0x00, 0x00,
  0x70, 0x00, 0x00, 0x00, 0x04, 0x00, 0x00, 0x00, 0x8a, 0xf3, 0xff, 0xff,
  0x00, 0x00, 0x00, 0x01, 0x14, 0x00, 0x00, 0x00, 0x30, 0x00, 0x00, 0x00,
  0x17, 0x00, 0x00, 0x00, 0x00, 0x00, 0x00, 0x09, 0x44, 0x00, 0x00, 0x00,
  0x74, 0xf3, 0xff, 0xff, 0x08, 0x00, 0x00, 0x00, 0x10, 0x00, 0x00, 0x00,
  0x01, 0x00, 0x00, 0x00, 0x80, 0xff, 0xff, 0xff, 0xff, 0xff, 0xff, 0xff,
  0x01, 0x00, 0x00, 0x00, 0x00, 0x00, 0x80, 0x3b, 0x19, 0x00, 0x00, 0x00,
  0x53, 0x74, 0x61, 0x74, 0x65, 0x66, 0x75, 0x6c, 0x50, 0x61, 0x72, 0x74,
  0x69, 0x74, 0x69, 0x6f, 0x6e, 0x65, 0x64, 0x43, 0x61, 0x6c, 0x6c, 0x3a,
  0x30, 0x00, 0x00, 0x00, 0x02, 0x00, 0x00, 0x00, 0x01, 0x00, 0x00, 0x00,
  0x0a, 0x00, 0x00, 0x00, 0xf2, 0xf3, 0xff, 0xff, 0x00, 0x00, 0x00, 0x01,
  0x14, 0x00, 0x00, 0x00, 0x30, 0x00, 0x00, 0x00, 0x16, 0x00, 0x00, 0x00,
  0x00, 0x00, 0x00, 0x09, 0x5c, 0x00, 0x00, 0x00, 0xdc, 0xf3, 0xff, 0xff,
  0x08, 0x00, 0x00, 0x00, 0x10, 0x00, 0x00, 0x00, 0x01, 0x00, 0x00, 0x00,
  0x28, 0x00, 0x00, 0x00, 0x00, 0x00, 0x00, 0x00, 0x01, 0x00, 0x00, 0x00,
  0x27, 0xa3, 0x1c, 0x3e, 0x32, 0x00, 0x00, 0x00, 0x73, 0x65, 0x71, 0x75,
  0x65, 0x6e, 0x74, 0x69, 0x61, 0x6c, 0x2f, 0x79, 0x5f, 0x70, 0x72, 0x65,
  0x64, 0x2f, 0x4d, 0x61, 0x74, 0x4d, 0x75, 0x6c, 0x3b, 0x73, 0x65, 0x71,
  0x75, 0x65, 0x6e, 0x74, 0x69, 0x61, 0x6c, 0x2f, 0x79, 0x5f, 0x70, 0x72,
  0x65, 0x64, 0x2f, 0x42, 0x69, 0x61, 0x73, 0x41, 0x64, 0x64, 0x00, 0x00,
  0x02, 0x00, 0x00, 0x00, 0x01, 0x00, 0x00, 0x00, 0x0a, 0x00, 0x00, 0x00,
  0x72, 0xf4, 0xff, 0xff, 0x00, 0x00, 0x00, 0x01, 0x14, 0x00, 0x00, 0x00,
  0x30, 0x00, 0x00, 0x00, 0x15, 0x00, 0x00, 0x00, 0x00, 0x00, 0x00, 0x09,
  0x44, 0x00, 0x00, 0x00, 0x5c, 0xf4, 0xff, 0xff, 0x08, 0x00, 0x00, 0x00,
  0x10, 0x00, 0x00, 0x00, 0x01, 0x00, 0x00, 0x00, 0x80, 0xff, 0xff, 0xff,
  0xff, 0xff, 0xff, 0xff, 0x01, 0x00, 0x00, 0x00, 0x7a, 0xba, 0x07, 0x3d,
  0x1a, 0x00, 0x00, 0x00, 0x73, 0x65, 0x71, 0x75, 0x65, 0x6e, 0x74, 0x69,
  0x61, 0x6c, 0x2f, 0x66, 0x6c, 0x61, 0x74, 0x74, 0x65, 0x6e, 0x2f, 0x52,
  0x65, 0x73, 0x68, 0x61, 0x70, 0x65, 0x00, 0x00, 0x02, 0x00, 0x00, 0x00,
  0x01, 0x00, 0x00, 0x00, 0x60, 0x01, 0x00, 0x00, 0xda, 0xf4, 0xff, 0xff,
  0x00, 0x00, 0x00, 0x01, 0x14, 0x00, 0x00, 0x00, 0x30, 0x00, 0x00, 0x00,
  0x14, 0x00, 0x00, 0x00, 0x00, 0x00, 0x00, 0x09, 0x4c, 0x00, 0x00, 0x00,
  0xc4, 0xf4, 0xff, 0xff, 0x08, 0x00, 0x00, 0x00, 0x10, 0x00, 0x00, 0x00,
  0x01, 0x00, 0x00, 0x00, 0x80, 0xff, 0xff, 0xff, 0xff, 0xff, 0xff, 0xff,
  0x01, 0x00, 0x00, 0x00, 0x7a, 0xba, 0x07, 0x3d, 0x22, 0x00, 0x00, 0x00,
  0x73, 0x65, 0x71, 0x75, 0x65, 0x6e, 0x74, 0x69, 0x61, 0x6c, 0x2f, 0x6d,
  0x61, 0x78, 0x5f, 0x70, 0x6f, 0x6f, 0x6c, 0x69, 0x6e, 0x67, 0x31, 0x64,
  0x5f, 0x31, 0x2f, 0x4d, 0x61, 0x78, 0x50, 0x6f, 0x6f, 0x6c, 0x00, 0x00,
  0x04, 0x00, 0x00, 0x00, 0x01, 0x00, 0x00, 0x00, 0x16, 0x00, 0x00, 0x00,
  0x01, 0x00, 0x00, 0x00, 0x10, 0x00, 0x00, 0x00, 0x52, 0xf5, 0xff, 0xff,
  0x00, 0x00, 0x00, 0x01, 0x14, 0x00, 0x00, 0x00, 0x34, 0x00, 0x00, 0x00,
  0x13, 0x00, 0x00, 0x00, 0x00, 0x00, 0x00, 0x09, 0x54, 0x00, 0x00, 0x00,
  0x3c, 0xf5, 0xff, 0xff, 0x08, 0x00, 0x00, 0x00, 0x14, 0x00, 0x00, 0x00,
  0x01, 0x00, 0x00, 0x00, 0x80, 0xff, 0xff, 0xff, 0xff, 0xff, 0xff, 0xff,
  0x00, 0x00, 0x00, 0x00, 0x01, 0x00, 0x00, 0x00, 0x7a, 0xba, 0x07, 0x3d,
  0x26, 0x00, 0x00, 0x00, 0x73, 0x65, 0x71, 0x75, 0x65, 0x6e, 0x74, 0x69,
  0x61, 0x6c, 0x2f, 0x6d, 0x61, 0x78, 0x5f, 0x70, 0x6f, 0x6f, 0x6c, 0x69,
  0x6e, 0x67, 0x31, 0x64, 0x5f, 0x31, 0x2f, 0x45, 0x78, 0x70, 0x61, 0x6e,
  0x64, 0x44, 0x69, 0x6d, 0x73, 0x31, 0x00, 0x00, 0x04, 0x00, 0x00, 0x00,
  0x01, 0x00, 0x00, 0x00, 0x2c, 0x00, 0x00, 0x00, 0x01, 0x00, 0x00, 0x00,
  0x10, 0x00, 0x00, 0x00, 0xd2, 0xf5, 0xff, 0xff, 0x00, 0x00, 0x00, 0x01,
  0x14, 0x00, 0x00, 0x00, 0x34, 0x00, 0x00, 0x00, 0x12, 0x00, 0x00, 0x00,
  0x00, 0x00, 0x00, 0x09, 0xcc, 0x00, 0x00, 0x00, 0xbc, 0xf5, 0xff, 0xff,
  0x08, 0x00, 0x00, 0x00, 0x14, 0x00, 0x00, 0x00, 0x01, 0x00, 0x00, 0x00,
  0x80, 0xff, 0xff, 0xff, 0xff, 0xff, 0xff, 0xff, 0x00, 0x00, 0x00, 0x00,
  0x01, 0x00, 0x00, 0x00, 0x7a, 0xba, 0x07, 0x3d, 0x9d, 0x00, 0x00, 0x00,
  0x73, 0x65, 0x71, 0x75, 0x65, 0x6e, 0x74, 0x69, 0x61, 0x6c, 0x2f, 0x63,
  0x6f, 0x6e, 0x76, 0x31, 0x64, 0x5f, 0x31, 0x2f, 0x52, 0x65, 0x6c, 0x75,
  0x3b, 0x73, 0x65, 0x71, 0x75, 0x65, 0x6e, 0x74, 0x69, 0x61, 0x6c, 0x2f,
  0x63, 0x6f, 0x6e, 0x76, 0x31, 0x64, 0x5f, 0x31, 0x2f, 0x42, 0x69, 0x61,
  0x73, 0x41, 0x64, 0x64, 0x3b, 0x73, 0x65, 0x71, 0x75, 0x65, 0x6e, 0x74,
  0x69, 0x61, 0x6c, 0x2f, 0x63, 0x6f, 0x6e, 0x76, 0x31, 0x64, 0x5f, 0x31,
  0x2f, 0x43, 0x6f, 0x6e, 0x76, 0x31, 0x44, 0x2f, 0x53, 0x71, 0x75, 0x65,
  0x65, 0x7a, 0x65, 0x3b, 0x73, 0x65, 0x71, 0x75, 0x65, 0x6e, 0x74, 0x69,
  0x61, 0x6c, 0x2f, 0x63, 0x6f, 0x6e, 0x76, 0x31, 0x64, 0x5f, 0x31, 0x2f,
  0x42, 0x69, 0x61, 0x73, 0x41, 0x64, 0x64, 0x2f, 0x52, 0x65, 0x61, 0x64,
  0x56, 0x61, 0x72, 0x69, 0x61, 0x62, 0x6c, 0x65, 0x4f, 0x70, 0x3b, 0x73,
  0x65, 0x71, 0x75, 0x65, 0x6e, 0x74, 0x69, 0x61, 0x6c, 0x2f, 0x63, 0x6f,
  0x6e, 0x76, 0x31, 0x64, 0x5f, 0x31, 0x2f, 0x43, 0x6f, 0x6e, 0x76, 0x31,
  0x44, 0x00, 0x00, 0x00, 0x04, 0x00, 0x00, 0x00, 0x01, 0x00, 0x00, 0x00,
  0x01, 0x00, 0x00, 0x00, 0x2c, 0x00, 0x00, 0x00, 0x10, 0x00, 0x00, 0x00,
  0xca, 0xf6, 0xff, 0xff, 0x00, 0x00, 0x00, 0x01, 0x14, 0x00, 0x00, 0x00,
  0x34, 0x00, 0x00, 0x00, 0x11, 0x00, 0x00, 0x00, 0x00, 0x00, 0x00, 0x09,
  0x54, 0x00, 0x00, 0x00, 0xb4, 0xf6, 0xff, 0xff, 0x08, 0x00, 0x00, 0x00,
  0x14, 0x00, 0x00, 0x00, 0x01, 0x00, 0x00, 0x00, 0x80, 0xff, 0xff, 0xff,
  0xff, 0xff, 0xff, 0xff, 0x00, 0x00, 0x00, 0x00, 0x01, 0x00, 0x00, 0x00,
  0x1c, 0x82, 0xfd, 0x3c, 0x26, 0x00, 0x00, 0x00, 0x73, 0x65, 0x71, 0x75,
  0x65, 0x6e, 0x74, 0x69, 0x61, 0x6c, 0x2f, 0x63, 0x6f, 0x6e, 0x76, 0x31,
  0x64, 0x5f, 0x31, 0x2f, 0x43, 0x6f, 0x6e, 0x76, 0x31, 0x44, 0x2f, 0x45,
  0x78, 0x70, 0x61, 0x6e, 0x64, 0x44, 0x69, 0x6d, 0x73, 0x31, 0x00, 0x00,
  0x04, 0x00, 0x00, 0x00, 0x01, 0x00, 0x00, 0x00, 0x01, 0x00, 0x00, 0x00,
  0x2c, 0x00, 0x00, 0x00, 0x08, 0x00, 0x00, 0x00, 0x4a, 0xf7, 0xff, 0xff,
  0x00, 0x00, 0x00, 0x01, 0x14, 0x00, 0x00, 0x00, 0x30, 0x00, 0x00, 0x00,
  0x10, 0x00, 0x00, 0x00, 0x00, 0x00, 0x00, 0x09, 0x4c, 0x00, 0x00, 0x00,
  0x34, 0xf7, 0xff, 0xff, 0x08, 0x00, 0x00, 0x00, 0x10, 0x00, 0x00, 0x00,
  0x01, 0x00, 0x00, 0x00, 0x80, 0xff, 0xff, 0xff, 0xff, 0xff, 0xff, 0xff,
  0x01, 0x00, 0x00, 0x00, 0x1c, 0x82, 0xfd, 0x3c, 0x20, 0x00, 0x00, 0x00,
  0x73, 0x65, 0x71, 0x75, 0x65, 0x6e, 0x74, 0x69, 0x61, 0x6c, 0x2f, 0x6d,
  0x61, 0x78, 0x5f, 0x70, 0x6f, 0x6f, 0x6c, 0x69, 0x6e, 0x67, 0x31, 0x64,
  0x2f, 0x4d, 0x61, 0x78, 0x50, 0x6f, 0x6f, 0x6c, 0x00, 0x00, 0x00, 0x00,
  0x04, 0x00, 0x00, 0x00, 0x01, 0x00, 0x00, 0x00, 0x2c, 0x00, 0x00, 0x00,
  0x01, 0x00, 0x00, 0x00, 0x08, 0x00, 0x00, 0x00, 0xc2, 0xf7, 0xff, 0xff,
  0x00, 0x00, 0x00, 0x01, 0x14, 0x00, 0x00, 0x00, 0x34, 0x00, 0x00, 0x00,
  0x0f, 0x00, 0x00, 0x00, 0x00, 0x00, 0x00, 0x09, 0x54, 0x00, 0x00, 0x00,
  0xac, 0xf7, 0xff, 0xff, 0x08, 0x00, 0x00, 0x00, 0x14, 0x00, 0x00, 0x00,
  0x01, 0x00, 0x00, 0x00, 0x80, 0xff, 0xff, 0xff, 0xff, 0xff, 0xff, 0xff,
  0x00, 0x00, 0x00, 0x00, 0x01, 0x00, 0x00, 0x00, 0x1c, 0x82, 0xfd, 0x3c,
  0x24, 0x00, 0x00, 0x00, 0x73, 0x65, 0x71, 0x75, 0x65, 0x6e, 0x74, 0x69,
  0x61, 0x6c, 0x2f, 0x6d, 0x61, 0x78, 0x5f, 0x70, 0x6f, 0x6f, 0x6c, 0x69,
  0x6e, 0x67, 0x31, 0x64, 0x2f, 0x45, 0x78, 0x70, 0x61, 0x6e, 0x64, 0x44,
  0x69, 0x6d, 0x73, 0x31, 0x00, 0x00, 0x00, 0x00, 0x04, 0x00, 0x00, 0x00,
  0x01, 0x00, 0x00, 0x00, 0x57, 0x00, 0x00, 0x00, 0x01, 0x00, 0x00, 0x00,
  0x08, 0x00, 0x00, 0x00, 0x42, 0xf8, 0xff, 0xff, 0x00, 0x00, 0x00, 0x01,
  0x14, 0x00, 0x00, 0x00, 0x30, 0x00, 0x00, 0x00, 0x0e, 0x00, 0x00, 0x00,
  0x00, 0x00, 0x00, 0x09, 0xbc, 0x00, 0x00, 0x00, 0x2c, 0xf8, 0xff, 0xff,
  0x08, 0x00, 0x00, 0x00, 0x10, 0x00, 0x00, 0x00, 0x01, 0x00, 0x00, 0x00,
  0x80, 0xff, 0xff, 0xff, 0xff, 0xff, 0xff, 0xff, 0x01, 0x00, 0x00, 0x00,
  0x1c, 0x82, 0xfd, 0x3c, 0x93, 0x00, 0x00, 0x00, 0x73, 0x65, 0x71, 0x75,
  0x65, 0x6e, 0x74, 0x69, 0x61, 0x6c, 0x2f, 0x63, 0x6f, 0x6e, 0x76, 0x31,
  0x64, 0x2f, 0x52, 0x65, 0x6c, 0x75, 0x3b, 0x73, 0x65, 0x71, 0x75, 0x65,
  0x6e, 0x74, 0x69, 0x61, 0x6c, 0x2f, 0x63, 0x6f, 0x6e, 0x76, 0x31, 0x64,
  0x2f, 0x42, 0x69, 0x61, 0x73, 0x41, 0x64, 0x64, 0x3b, 0x73, 0x65, 0x71,
  0x75, 0x65, 0x6e, 0x74, 0x69, 0x61, 0x6c, 0x2f, 0x63, 0x6f, 0x6e, 0x76,
  0x31, 0x64, 0x2f, 0x43, 0x6f, 0x6e, 0x76, 0x31, 0x44, 0x2f, 0x53, 0x71,
  0x75, 0x65, 0x65, 0x7a, 0x65, 0x3b, 0x73, 0x65, 0x71, 0x75, 0x65, 0x6e,
  0x74, 0x69, 0x61, 0x6c, 0x2f, 0x63, 0x6f, 0x6e, 0x76, 0x31, 0x64, 0x2f,
  0x42, 0x69, 0x61, 0x73, 0x41, 0x64, 0x64, 0x2f, 0x52, 0x65, 0x61, 0x64,
  0x56, 0x61, 0x72, 0x69, 0x61, 0x62, 0x6c, 0x65, 0x4f, 0x70, 0x3b, 0x73,
  0x65, 0x71, 0x75, 0x65, 0x6e, 0x74, 0x69, 0x61, 0x6c, 0x2f, 0x63, 0x6f,
  0x6e, 0x76, 0x31, 0x64, 0x2f, 0x43, 0x6f, 0x6e, 0x76, 0x31, 0x44, 0x00,
  0x04, 0x00, 0x00, 0x00, 0x01, 0x00, 0x00, 0x00, 0x01, 0x00, 0x00, 0x00,
  0x57, 0x00, 0x00, 0x00, 0x08, 0x00, 0x00, 0x00, 0x2a, 0xf9, 0xff, 0xff,
  0x00, 0x00, 0x00, 0x01, 0x14, 0x00, 0x00, 0x00, 0x34, 0x00, 0x00, 0x00,
  0x0d, 0x00, 0x00, 0x00, 0x00, 0x00, 0x00, 0x09, 0x54, 0x00, 0x00, 0x00,
  0x14, 0xf9, 0xff, 0xff, 0x08, 0x00, 0x00, 0x00, 0x14, 0x00, 0x00, 0x00,
  0x01, 0x00, 0x00, 0x00, 0xf2, 0xff, 0xff, 0xff, 0xff, 0xff, 0xff, 0xff,
  0x00, 0x00, 0x00, 0x00, 0x01, 0x00, 0x00, 0x00, 0xea, 0xa9, 0x32, 0x3d,
  0x24, 0x00, 0x00, 0x00, 0x73, 0x65, 0x71, 0x75, 0x65, 0x6e, 0x74, 0x69,
  0x61, 0x6c, 0x2f, 0x63, 0x6f, 0x6e, 0x76, 0x31, 0x64, 0x2f, 0x43, 0x6f,
  0x6e, 0x76, 0x31, 0x44, 0x2f, 0x45, 0x78, 0x70, 0x61, 0x6e, 0x64, 0x44,
  0x69, 0x6d, 0x73, 0x31, 0x00, 0x00, 0x00, 0x00, 0x04, 0x00, 0x00, 0x00,
  0x01, 0x00, 0x00, 0x00, 0x01, 0x00, 0x00, 0x00, 0x57, 0x00, 0x00, 0x00,
  0x0d, 0x00, 0x00, 0x00, 0xaa, 0xf9, 0xff, 0xff, 0x00, 0x00, 0x00, 0x01,
  0x14, 0x00, 0x00, 0x00, 0x88, 0x00, 0x00, 0x00, 0x0c, 0x00, 0x00, 0x00,
  0x00, 0x00, 0x00, 0x09, 0x9c, 0x00, 0x00, 0x00, 0x94, 0xf9, 0xff, 0xff,
  0x08, 0x00, 0x00, 0x00, 0x4c, 0x00, 0x00, 0x00, 0x08, 0x00, 0x00, 0x00,
  0x00, 0x00, 0x00, 0x00, 0x00, 0x00, 0x00, 0x00, 0x00, 0x00, 0x00, 0x00,
  0x00, 0x00, 0x00, 0x00, 0x00, 0x00, 0x00, 0x00, 0x00, 0x00, 0x00, 0x00,
  0x00, 0x00, 0x00, 0x00, 0x00, 0x00, 0x00, 0x00, 0x00, 0x00, 0x00, 0x00,
  0x00, 0x00, 0x00, 0x00, 0x00, 0x00, 0x00, 0x00, 0x00, 0x00, 0x00, 0x00,
  0x00, 0x00, 0x00, 0x00, 0x00, 0x00, 0x00, 0x00, 0x00, 0x00, 0x00, 0x00,
  0x00, 0x00, 0x00, 0x00, 0x00, 0x00, 0x00, 0x00, 0x08, 0x00, 0x00, 0x00,
  0x16, 0x18, 0x7f, 0x3b, 0x7f, 0xd8, 0x98, 0x3b, 0xce, 0x4b, 0xa1, 0x3b,
  0x1b, 0x79, 0x98, 0x3b, 0x43, 0xab, 0x66, 0x3b, 0xe2, 0x9a, 0x5a, 0x3b,
  0x92, 0xec, 0x79, 0x3b, 0x47, 0xc3, 0x63, 0x3b, 0x18, 0x00, 0x00, 0x00,
  0x73, 0x65, 0x71, 0x75, 0x65, 0x6e, 0x74, 0x69, 0x61, 0x6c, 0x2f, 0x63,
  0x6f, 0x6e, 0x76, 0x31, 0x64, 0x2f, 0x43, 0x6f, 0x6e, 0x76, 0x31, 0x44,
  0x00, 0x00, 0x00, 0x00, 0x04, 0x00, 0x00, 0x00, 0x08, 0x00, 0x00, 0x00,
  0x01, 0x00, 0x00, 0x00, 0x03, 0x00, 0x00, 0x00, 0x0d, 0x00, 0x00, 0x00,
  0x72, 0xfa, 0xff, 0xff, 0x00, 0x00, 0x00, 0x01, 0x14, 0x00, 0x00, 0x00,
  0x84, 0x00, 0x00, 0x00, 0x0b, 0x00, 0x00, 0x00, 0x00, 0x00, 0x00, 0x02,
  0xa8, 0x00, 0x00, 0x00, 0x5c, 0xfa, 0xff, 0xff, 0x08, 0x00, 0x00, 0x00,
  0x48, 0x00, 0x00, 0x00, 0x08, 0x00, 0x00, 0x00, 0x00, 0x00, 0x00, 0x00,
  0x00, 0x00, 0x00, 0x00, 0x00, 0x00, 0x00, 0x00, 0x00, 0x00, 0x00, 0x00,
  0x00, 0x00, 0x00, 0x00, 0x00, 0x00, 0x00, 0x00, 0x00, 0x00, 0x00, 0x00,
  0x00, 0x00, 0x00, 0x00, 0x00, 0x00, 0x00, 0x00, 0x00, 0x00, 0x00, 0x00,
  0x00, 0x00, 0x00, 0x00, 0x00, 0x00, 0x00, 0x00, 0x00, 0x00, 0x00, 0x00,
  0x00, 0x00, 0x00, 0x00, 0x00, 0x00, 0x00, 0x00, 0x00, 0x00, 0x00, 0x00,
  0x08, 0x00, 0x00, 0x00, 0x0f, 0x08, 0x32, 0x39, 0xf6, 0x57, 0x55, 0x39,
  0x87, 0x23, 0x61, 0x39, 0xd0, 0xd2, 0x54, 0x39, 0x2e, 0xfc, 0x20, 0x39,
  0xc9, 0x90, 0x18, 0x39, 0x5f, 0x6c, 0x2e, 0x39, 0xf3, 0xf4, 0x1e, 0x39,
  0x28, 0x00, 0x00, 0x00, 0x73, 0x65, 0x71, 0x75, 0x65, 0x6e, 0x74, 0x69,
  0x61, 0x6c, 0x2f, 0x63, 0x6f, 0x6e, 0x76, 0x31, 0x64, 0x2f, 0x42, 0x69,
  0x61, 0x73, 0x41, 0x64, 0x64, 0x2f, 0x52, 0x65, 0x61, 0x64, 0x56, 0x61,
  0x72, 0x69, 0x61, 0x62, 0x6c, 0x65, 0x4f, 0x70, 0x00, 0x00, 0x00, 0x00,
  0x01, 0x00, 0x00, 0x00, 0x08, 0x00, 0x00, 0x00, 0x3a, 0xfb, 0xff, 0xff,
  0x00, 0x00, 0x00, 0x01, 0x14, 0x00, 0x00, 0x00, 0xe8, 0x00, 0x00, 0x00,
  0x0a, 0x00, 0x00, 0x00, 0x00, 0x00, 0x00, 0x09, 0xfc, 0x00, 0x00, 0x00,
  0x24, 0xfb, 0xff, 0xff, 0x08, 0x00, 0x00, 0x00, 0x8c, 0x00, 0x00, 0x00,
  0x10, 0x00, 0x00, 0x00, 0x00, 0x00, 0x00, 0x00, 0x00, 0x00, 0x00, 0x00,
  0x00, 0x00, 0x00, 0x00, 0x00, 0x00, 0x00, 0x00, 0x00, 0x00, 0x00, 0x00,
  0x00, 0x00, 0x00, 0x00, 0x00, 0x00, 0x00, 0x00, 0x00, 0x00, 0x00, 0x00,
  0x00, 0x00, 0x00, 0x00, 0x00, 0x00, 0x00, 0x00, 0x00, 0x00, 0x00, 0x00,
  0x00, 0x00, 0x00, 0x00, 0x00, 0x00, 0x00, 0x00, 0x00, 0x00, 0x00, 0x00,
  0x00, 0x00, 0x00, 0x00, 0x00, 0x00, 0x00, 0x00, 0x00, 0x00, 0x00, 0x00,
  0x00, 0x00, 0x00, 0x00, 0x00, 0x00, 0x00, 0x00, 0x00, 0x00, 0x00, 0x00,
  0x00, 0x00, 0x00, 0x00, 0x00, 0x00, 0x00, 0x00, 0x00, 0x00, 0x00, 0x00,
  0x00, 0x00, 0x00, 0x00, 0x00, 0x00, 0x00, 0x00, 0x00, 0x00, 0x00, 0x00,
  0x00, 0x00, 0x00, 0x00, 0x00, 0x00, 0x00, 0x00, 0x00, 0x00, 0x00, 0x00,
  0x00, 0x00, 0x00, 0x00, 0x00, 0x00, 0x00, 0x00, 0x00, 0x00, 0x00, 0x00,
  0x00, 0x00, 0x00, 0x00, 0x10, 0x00, 0x00, 0x00, 0x9e, 0x3d, 0x2b, 0x3b,
  0xa0, 0x9c, 0x80, 0x3b, 0x7f, 0x36, 0x5a, 0x3b, 0x6b, 0x70, 0x89, 0x3b,
  0x9f, 0xf7, 0x69, 0x3b, 0x7d, 0xc0, 0x82, 0x3b, 0x08, 0xff, 0x69, 0x3b,
  0x53, 0x98, 0x38, 0x3b, 0x49, 0x74, 0x42, 0x3b, 0x1b, 0xd2, 0x45, 0x3b,
  0xe9, 0xbe, 0x76, 0x3b, 0xfe, 0xc0, 0x7d, 0x3b, 0xf8, 0xda, 0x69, 0x3b,
  0x3d, 0xf9, 0x6f, 0x3b, 0x4e, 0xdb, 0x77, 0x3b, 0x0b, 0x67, 0x4c, 0x3b,
  0x1a, 0x00, 0x00, 0x00, 0x73, 0x65, 0x71, 0x75, 0x65, 0x6e, 0x74, 0x69,
  0x61, 0x6c, 0x2f, 0x63, 0x6f, 0x6e, 0x76, 0x31, 0x64, 0x5f, 0x31, 0x2f,
  0x43, 0x6f, 0x6e, 0x76, 0x31, 0x44, 0x00, 0x00, 0x04, 0x00, 0x00, 0x00,
  0x10, 0x00, 0x00, 0x00, 0x01, 0x00, 0x00, 0x00, 0x03, 0x00, 0x00, 0x00,
  0x08, 0x00, 0x00, 0x00, 0x62, 0xfc, 0xff, 0xff, 0x00, 0x00, 0x00, 0x01,
  0x14, 0x00, 0x00, 0x00, 0xe4, 0x00, 0x00, 0x00, 0x09, 0x00, 0x00, 0x00,
  0x00, 0x00, 0x00, 0x02, 0x08, 0x01, 0x00, 0x00, 0x4c, 0xfc, 0xff, 0xff,
  0x08, 0x00, 0x00, 0x00, 0x88, 0x00, 0x00, 0x00, 0x10, 0x00, 0x00, 0x00,
  0x00, 0x00, 0x00, 0x00, 0x00, 0x00, 0x00, 0x00, 0x00, 0x00, 0x00, 0x00,
  0x00, 0x00, 0x00, 0x00, 0x00, 0x00, 0x00, 0x00, 0x00, 0x00, 0x00, 0x00,
  0x00, 0x00, 0x00, 0x00, 0x00, 0x00, 0x00, 0x00, 0x00, 0x00, 0x00, 0x00,
  0x00, 0x00, 0x00, 0x00, 0x00, 0x00, 0x00, 0x00, 0x00, 0x00, 0x00, 0x00,
  0x00, 0x00, 0x00, 0x00, 0x00, 0x00, 0x00, 0x00, 0x00, 0x00, 0x00, 0x00,
  0x00, 0x00, 0x00, 0x00, 0x00, 0x00, 0x00, 0x00, 0x00, 0x00, 0x00, 0x00,
  0x00, 0x00, 0x00, 0x00, 0x00, 0x00, 0x00, 0x00, 0x00, 0x00, 0x00, 0x00,
  0x00, 0x00, 0x00, 0x00, 0x00, 0x00, 0x00, 0x00, 0x00, 0x00, 0x00, 0x00,
  0x00, 0x00, 0x00, 0x00, 0x00, 0x00, 0x00, 0x00, 0x00, 0x00, 0x00, 0x00,
  0x00, 0x00, 0x00, 0x00, 0x00, 0x00, 0x00, 0x00, 0x00, 0x00, 0x00, 0x00,
  0x00, 0x00, 0x00, 0x00, 0x00, 0x00, 0x00, 0x00, 0x10, 0x00, 0x00, 0x00,
  0xed, 0x92, 0xa9, 0x38, 0x4f, 0xb8, 0xfe, 0x38, 0xc3, 0x16, 0xd8, 0x38,
  0xf4, 0x19, 0x08, 0x39, 0xa1, 0xb0, 0xe7, 0x38, 0xb0, 0x7a, 0x01, 0x39,
  0xf8, 0xb7, 0xe7, 0x38, 0x5c, 0xcc, 0xb6, 0x38, 0xc0, 0x8f, 0xc0, 0x38,
  0x2f, 0xe5, 0xc3, 0x38, 0x14, 0x58, 0xf4, 0x38, 0xb3, 0x48, 0xfb, 0x38,
  0x42, 0x94, 0xe7, 0x38, 0x48, 0xa3, 0xed, 0x38, 0xb5, 0x71, 0xf5, 0x38,
  0xb9, 0x69, 0xca, 0x38, 0x2a, 0x00, 0x00, 0x00, 0x73, 0x65, 0x71, 0x75,
  0x65, 0x6e, 0x74, 0x69, 0x61, 0x6c, 0x2f, 0x63, 0x6f, 0x6e, 0x76, 0x31,
  0x64, 0x5f, 0x31, 0x2f, 0x42, 0x69, 0x61, 0x73, 0x41, 0x64, 0x64, 0x2f,
  0x52, 0x65, 0x61, 0x64, 0x56, 0x61, 0x72, 0x69, 0x61, 0x62, 0x6c, 0x65,
  0x4f, 0x70, 0x00, 0x00, 0x01, 0x00, 0x00, 0x00, 0x10, 0x00, 0x00, 0x00,
  0x8a, 0xfd, 0xff, 0xff, 0x00, 0x00, 0x00, 0x01, 0x14, 0x00, 0x00, 0x00,
  0x30, 0x00, 0x00, 0x00, 0x08, 0x00, 0x00, 0x00, 0x00, 0x00, 0x00, 0x09,
  0x44, 0x00, 0x00, 0x00, 0x74, 0xfd, 0xff, 0xff, 0x08, 0x00, 0x00, 0x00,
  0x10, 0x00, 0x00, 0x00, 0x01, 0x00, 0x00, 0x00, 0x00, 0x00, 0x00, 0x00,
  0x00, 0x00, 0x00, 0x00, 0x01, 0x00, 0x00, 0x00, 0x8e, 0x1b, 0x93, 0x3b,
  0x18, 0x00, 0x00, 0x00, 0x73, 0x65, 0x71, 0x75, 0x65, 0x6e, 0x74, 0x69,
  0x61, 0x6c, 0x2f, 0x79, 0x5f, 0x70, 0x72, 0x65, 0x64, 0x2f, 0x4d, 0x61,
  0x74, 0x4d, 0x75, 0x6c, 0x00, 0x00, 0x00, 0x00, 0x02, 0x00, 0x00, 0x00,
  0x0a, 0x00, 0x00, 0x00, 0x60, 0x01, 0x00, 0x00, 0xf2, 0xfd, 0xff, 0xff,
  0x00, 0x00, 0x00, 0x01, 0x14, 0x00, 0x00, 0x00, 0x34, 0x00, 0x00, 0x00,
  0x07, 0x00, 0x00, 0x00, 0x00, 0x00, 0x00, 0x02, 0x58, 0x00, 0x00, 0x00,
  0xdc, 0xfd, 0xff, 0xff, 0x08, 0x00, 0x00, 0x00, 0x14, 0x00, 0x00, 0x00,
  0x01, 0x00, 0x00, 0x00, 0x00, 0x00, 0x00, 0x00, 0x00, 0x00, 0x00, 0x00,
  0x00, 0x00, 0x00, 0x00, 0x01, 0x00, 0x00, 0x00, 0x60, 0xfd, 0x1b, 0x39,
  0x28, 0x00, 0x00, 0x00, 0x73, 0x65, 0x71, 0x75, 0x65, 0x6e, 0x74, 0x69,
  0x61, 0x6c, 0x2f, 0x79, 0x5f, 0x70, 0x72, 0x65, 0x64, 0x2f, 0x42, 0x69,
  0x61, 0x73, 0x41, 0x64, 0x64, 0x2f, 0x52, 0x65, 0x61, 0x64, 0x56, 0x61,
  0x72, 0x69, 0x61, 0x62, 0x6c, 0x65, 0x4f, 0x70, 0x00, 0x00, 0x00, 0x00,
  0x01, 0x00, 0x00, 0x00, 0x0a, 0x00, 0x00, 0x00, 0x6a, 0xfe, 0xff, 0xff,
  0x00, 0x00, 0x00, 0x01, 0x14, 0x00, 0x00, 0x00, 0x14, 0x00, 0x00, 0x00,
  0x06, 0x00, 0x00, 0x00, 0x00, 0x00, 0x00, 0x02, 0x28, 0x00, 0x00, 0x00,
  0xc0, 0xfe, 0xff, 0xff, 0x18, 0x00, 0x00, 0x00, 0x73, 0x65, 0x71, 0x75,
  0x65, 0x6e, 0x74, 0x69, 0x61, 0x6c, 0x2f, 0x66, 0x6c, 0x61, 0x74, 0x74,
  0x65, 0x6e, 0x2f, 0x43, 0x6f, 0x6e, 0x73, 0x74, 0x00, 0x00, 0x00, 0x00,
  0x01, 0x00, 0x00, 0x00, 0x02, 0x00, 0x00, 0x00, 0xb2, 0xfe, 0xff, 0xff,
  0x00, 0x00, 0x00, 0x01, 0x14, 0x00, 0x00, 0x00, 0x14, 0x00, 0x00, 0x00,
  0x05, 0x00, 0x00, 0x00, 0x00, 0x00, 0x00, 0x02, 0x34, 0x00, 0x00, 0x00,
  0x08, 0xff, 0xff, 0xff, 0x25, 0x00, 0x00, 0x00, 0x73, 0x65, 0x71, 0x75,
  0x65, 0x6e, 0x74, 0x69, 0x61, 0x6c, 0x2f, 0x6d, 0x61, 0x78, 0x5f, 0x70,
  0x6f, 0x6f, 0x6c, 0x69, 0x6e, 0x67, 0x31, 0x64, 0x5f, 0x31, 0x2f, 0x45,
  0x78, 0x70, 0x61, 0x6e, 0x64, 0x44, 0x69, 0x6d, 0x73, 0x00, 0x00, 0x00,
  0x01, 0x00, 0x00, 0x00, 0x04, 0x00, 0x00, 0x00, 0x06, 0xff, 0xff, 0xff,
  0x00, 0x00, 0x00, 0x01, 0x14, 0x00, 0x00, 0x00, 0x14, 0x00, 0x00, 0x00,
  0x04, 0x00, 0x00, 0x00, 0x00, 0x00, 0x00, 0x02, 0x34, 0x00, 0x00, 0x00,
  0x5c, 0xff, 0xff, 0xff, 0x25, 0x00, 0x00, 0x00, 0x73, 0x65, 0x71, 0x75,
  0x65, 0x6e, 0x74, 0x69, 0x61, 0x6c, 0x2f, 0x63, 0x6f, 0x6e, 0x76, 0x31,
  0x64, 0x5f, 0x31, 0x2f, 0x43, 0x6f, 0x6e, 0x76, 0x31, 0x44, 0x2f, 0x45,
  0x78, 0x70, 0x61, 0x6e, 0x64, 0x44, 0x69, 0x6d, 0x73, 0x00, 0x00, 0x00,
  0x01, 0x00, 0x00, 0x00, 0x04, 0x00, 0x00, 0x00, 0x5a, 0xff, 0xff, 0xff,
  0x00, 0x00, 0x00, 0x01, 0x14, 0x00, 0x00, 0x00, 0x14, 0x00, 0x00, 0x00,
  0x03, 0x00, 0x00, 0x00, 0x00, 0x00, 0x00, 0x02, 0x30, 0x00, 0x00, 0x00,
  0xb0, 0xff, 0xff, 0xff, 0x23, 0x00, 0x00, 0x00, 0x73, 0x65, 0x71, 0x75,
  0x65, 0x6e, 0x74, 0x69, 0x61, 0x6c, 0x2f, 0x6d, 0x61, 0x78, 0x5f, 0x70,
  0x6f, 0x6f, 0x6c, 0x69, 0x6e, 0x67, 0x31, 0x64, 0x2f, 0x45, 0x78, 0x70,
  0x61, 0x6e, 0x64, 0x44, 0x69, 0x6d, 0x73, 0x00, 0x01, 0x00, 0x00, 0x00,
  0x04, 0x00, 0x00, 0x00, 0xaa, 0xff, 0xff, 0xff, 0x00, 0x00, 0x00, 0x01,
  0x18, 0x00, 0x00, 0x00, 0x18, 0x00, 0x00, 0x00, 0x02, 0x00, 0x00, 0x00,
  0x00, 0x00, 0x00, 0x02, 0x34, 0x00, 0x00, 0x00, 0x04, 0x00, 0x04, 0x00,
  0x04, 0x00, 0x00, 0x00, 0x23, 0x00, 0x00, 0x00, 0x73, 0x65, 0x71, 0x75,
  0x65, 0x6e, 0x74, 0x69, 0x61, 0x6c, 0x2f, 0x63, 0x6f, 0x6e, 0x76, 0x31,
  0x64, 0x2f, 0x43, 0x6f, 0x6e, 0x76, 0x31, 0x44, 0x2f, 0x45, 0x78, 0x70,
  0x61, 0x6e, 0x64, 0x44, 0x69, 0x6d, 0x73, 0x00, 0x01, 0x00, 0x00, 0x00,
  0x04, 0x00, 0x00, 0x00, 0x00, 0x00, 0x16, 0x00, 0x1c, 0x00, 0x18, 0x00,
  0x17, 0x00, 0x10, 0x00, 0x0c, 0x00, 0x08, 0x00, 0x00, 0x00, 0x00, 0x00,
  0x00, 0x00, 0x07, 0x00, 0x16, 0x00, 0x00, 0x00, 0x00, 0x00, 0x00, 0x01,
  0x20, 0x00, 0x00, 0x00, 0x3c, 0x00, 0x00, 0x00, 0x01, 0x00, 0x00, 0x00,
  0x00, 0x00, 0x00, 0x09, 0x48, 0x00, 0x00, 0x00, 0x0c, 0x00, 0x0c, 0x00,
  0x00, 0x00, 0x00, 0x00, 0x08, 0x00, 0x04, 0x00, 0x0c, 0x00, 0x00, 0x00,
  0x08, 0x00, 0x00, 0x00, 0x10, 0x00, 0x00, 0x00, 0x01, 0x00, 0x00, 0x00,
  0xf2, 0xff, 0xff, 0xff, 0xff, 0xff, 0xff, 0xff, 0x01, 0x00, 0x00, 0x00,
  0xea, 0xa9, 0x32, 0x3d, 0x13, 0x00, 0x00, 0x00, 0x73, 0x65, 0x72, 0x76,
  0x69, 0x6e, 0x67, 0x5f, 0x64, 0x65, 0x66, 0x61, 0x75, 0x6c, 0x74, 0x5f,
  0x78, 0x3a, 0x30, 0x00, 0x02, 0x00, 0x00, 0x00, 0x01, 0x00, 0x00, 0x00,
  0x6b, 0x04, 0x00, 0x00, 0x05, 0x00, 0x00, 0x00, 0x6c, 0x00, 0x00, 0x00,
  0x4c, 0x00, 0x00, 0x00, 0x2c, 0x00, 0x00, 0x00, 0x18, 0x00, 0x00, 0x00,
  0x04, 0x00, 0x00, 0x00, 0xd0, 0xff, 0xff, 0xff, 0x19, 0x00, 0x00, 0x00,
  0x02, 0x00, 0x00, 0x00, 0x00, 0x00, 0x00, 0x19, 0xe0, 0xff, 0xff, 0xff,
  0x09, 0x00, 0x00, 0x00, 0x04, 0x00, 0x00, 0x00, 0x00, 0x00, 0x00, 0x09,
  0xf0, 0xff, 0xff, 0xff, 0x11, 0x00, 0x00, 0x00, 0x02, 0x00, 0x00, 0x00,
  0x00, 0x00, 0x00, 0x11, 0x0c, 0x00, 0x10, 0x00, 0x0f, 0x00, 0x00, 0x00,
  0x08, 0x00, 0x04, 0x00, 0x0c, 0x00, 0x00, 0x00, 0x03, 0x00, 0x00, 0x00,
  0x03, 0x00, 0x00, 0x00, 0x00, 0x00, 0x00, 0x03, 0x0c, 0x00, 0x0c, 0x00,
  0x0b, 0x00, 0x00, 0x00, 0x00, 0x00, 0x04, 0x00, 0x0c, 0x00, 0x00, 0x00,
  0x16, 0x00, 0x00, 0x00, 0x00, 0x00, 0x00, 0x16
};
unsigned int tflite_learn_5_len = 9368;
#endif // _EI_CLASSIFIER_TFLITE_LEARN_5_H_
